{"gai": 797, "\u258115-0": 3, "1,800": 3032, "\u2581Secr": 1, "hanging": 304, "\u8599": 4201, "\u8de4": 33797, "lench": 213, "LASS": 253, "LAST": 1524, "\u25811.2.": 3918, "lenco": 112, "lence": 211, "iguan": 1505, "igual": 54, "\u2581ubi": 13, "\u6cb3": 3577083, "tanggal": 2, "\u9ad8\u53ce\u5165": 2, "Western": 4319, "LASH": 390, "\u258127/0": 7, "arsson": 352, "\u25811.25": 175, "Euro": 5552, "merker": 3, "\u2581Klinik": 4, "Blade": 3334, "\u53cd": 2813208, "pigment": 368, "\u8662": 13371, "\u2581john": 38, "\u2581camera": 24, "\u2581bug": 155, "\u2581bud": 19, "\u2581bun": 15, "\u2581bul": 9, "\u2581Sigur": 20, "\u5e73\u5b89": 236733, "\u2581but": 487, "\u76c8\u5229": 244517, "\u2581bur": 27, "\u2581bus": 23, "ithromycin": 122, "\u2581buz": 5, "\u2581buy": 35, "chaussure": 4, "\u2581Camo": 3, "0059": 654, "0058": 638, "27%": 18888, "27(": 2588, "27)": 7631, "0051": 1510, "0050": 1185, "0057": 416, "0056": 720, "27.": 38376, "0054": 884, "270": 52655, "271": 11991, "272": 18278, "273": 16505, "274": 14343, "\u5e94": 4396284, "276": 19741, "277": 12085, "278": 17745, "279": 14484, "dialogu": 337, "errors": 364, "rketin": 7, "TRAT": 30, "\u2581Arka": 13, "lariga": 1, "\u2581Hits": 5, "glyco": 1164, "\u2581Hitz": 1, "\u2581STRA": 26, "TRAS": 317, "EIRO": 78, "karibi": 1, "\u2581modul": 4, "\u6e5f": 14724, "\u5c71\u53e3\u770c": 82, "odrum": 113, "kids": 2304, "\u52bf\u529b": 199860, "\u5ce8": 85230, "\u2581decorat": 4, "kide": 97, "toestel": 4, "milik": 13, "\u771f\u5263": 166, "27]": 257, "\u9e7f": 379548, "Stand": 3912, "\u5916\u58c1": 11005, "OLLO": 265, "OLLA": 1283, "sters": 1414, "\u4e0a": 19345972, "OLLE": 227, "\u2581Urug": 1, "sterk": 31, "ocain": 6, "stern": 658, "zendo": 16, "\u804c\u80fd": 331422, "clusione": 1, "sterf": 29, "dne": 176, "nalyze": 691, "KTOR": 34, "atkal": 19, "atkan": 7, "dni": 83, "\u67af": 265676, "Renat": 423, "dnu": 39, "atkar": 30, "Premier": 1828, "yafi": 5, "voyageur": 9, "dny": 166, "okuwa": 71, "virti": 35, "\u2581Kod": 13, "<0x9E>": 120076, "\u2581Koi": 25, "\u2581Koh": 41, "\u5c97\u4f4d": 430106, "\u2581Koj": 6, "Deutschland": 607, "yahoo": 1049, "\u2581Koo": 57, "\u2581Kon": 185, "\u58d1": 38071, "\u2581Kop": 23, "\u2581Kos": 101, "\u2581Kor": 283, "\u2581Kou": 65, "\u2581Kot": 31, "\u2581Kow": 14, "\u2581Kov": 3, "\u2581Koy": 5, "kurser": 1, "\u2581Koz": 26, "gencies": 302, "intake": 219, "\u5965\u8fd0\u4f1a": 201270, "\u4e8c\u91cd": 16223, "isbranded": 1, "\u88f1": 35485, "alkyl": 285, "phani": 347, "xodi": 117, "\u2581Agen": 4, "ofta": 144, "\u2581Church": 74, "ofte": 534, "phane": 738, "pintu": 52, "wana": 644, "wang": 8552, "ABAD": 72, "orcester": 336, "\u25816,1": 5, "wani": 245, "wann": 360, "wano": 105, "ABAR": 130, "ffnung": 62, "pinta": 38, "want": 10860, "wanu": 11, "tkala": 2, "rayon": 494, "pinto": 279, "pinti": 18, "ificados": 3, "\u25818,3": 8, "\u25818,2": 4, "\u25818,1": 5, "\u25818,0": 1, "\u2581beige": 5, "\u25818,5": 3, "\u25818,4": 4, "bewust": 2, "ARCH": 1435, "travel": 3095, "\u25818,8": 8, "\u2581Athens": 4, "Jetzt": 30, "ambala": 44, "Promise": 1257, "\u5176\u6b21": 262155, "HEAD": 1499, "okset": 10, "TERN": 636, "\u8c49": 35562, "peech": 1251, "sedd": 13, "\u73b0\u91d1\u7f51": 23, "wrong": 2511, "OWN": 1428, "\u2581satan": 3, "seda": 141, "ulatus": 762, "waxa": 16, "labas": 64, "\u695b": 874, "\u25812014)": 2, "\u25812014.": 10710, "alakul": 14, "ilingi": 20, "\u770b\u4e86": 371454, "\u9519\u8bef": 446706, "CFD": 3434, "CFE": 842, "CFC": 3267, "CFA": 12801, "ultak": 1, "2967": 885, "\u2581commerciali": 1, "\u2581Mandi": 9, "\u997b": 20, "vtomobil": 5, "kazali": 4, "\u2581Loop": 76, "\u57ac": 27, "\u2581Look": 351, "mobiliare": 3, "Hip": 8840, "fis": 441, "His": 4107, "Hit": 5180, "fit": 4925, "fiz": 79, "\u62ab": 269825, "uoc": 578, "fic": 1271, "fia": 199, "fig": 1295, "fid": 302, "fie": 392, "fik": 276, "Hij": 204, "fin": 3239, "fil": 1217, "\u9f3e": 12145, "AAGAA": 7, "\u2581Brian": 341, "\u591a\u7684": 443075, "crypt": 1679, "Wanita": 15, "Macie": 115, "owarzys": 7, "sova": 162, "\u2581Gris": 22, "\u2581alu": 1, "\u6821\u957f": 428952, "\u5162": 54396, "TERS": 716, "\u2581Vide": 7, "\u2581Analyse": 4, "\u8df5": 102374, "intza": 2, "timeout": 483, "://:": 5, "voudig": 15, "\u2581kok": 4, "\u2581osa": 2, "\u6603": 1524, "\u2581koj": 2, "\u2581Dominica": 4, "isyo": 49, "\u2581Benef": 1, "kowy": 28, "sya": 363, "\u2581Whi": 77, "kowa": 346, "\u2581TRANS": 72, "\u2581koo": 32, "kowe": 33, "\u2581Who": 615, "\u2581Wha": 13, "kowi": 131, "kowo": 52, "\u2581finance": 6, "\u2581pai": 11, "njali": 97, "XXXX": 6258, "njalo": 3, "\u544a": 664658, "\u2581pak": 20, "\u2581PENG": 13, "XXXS": 15, "XXXL": 118, "\u2581pad": 25, "\u6307\u4ee4": 141013, "adapt": 578, "avaka": 12, "size": 9081, "bewu": 6, "amministrazione": 6, "kkkkkkkk": 59, "ismeret": 3, "Egy": 35, "lanishi": 4, "MEDIA": 1663, "MEDIC": 639, "\u914d": 2369700, "ykite": 9, "cznej": 4, "Diamond": 4387, "\u2581pab": 3, "\u771f\u5047": 44634, "sheet": 1315, "estimate": 452, "\u52e0": 271, "dische": 81, "chlad": 29, "\u2581Contract": 14, "chiara": 70, "\u2581fand": 1, "\u6700\u77ed": 54174, "ddiad": 3, "\u7d4c\u9a13": 328, "19.10": 672, "Facts": 330, "wapan": 8, "\u2581fans": 44, "\u2581fant": 6, "\u2581pay": 55, "vieto": 37, "vietn": 1, "\u6485": 8807, "iseren": 3, "viete": 2, "Activity": 1933, "vieta": 13, "\u6700\u9ad8\u7684": 159867, "\u2581Dela": 37, "\u2581pat": 30, "\u2581Delf": 11, "\u2581Deli": 32, "\u2581Dell": 479, "annabino": 48, "LANG": 832, "LANE": 514, "LAND": 5277, "\u94a5": 177724, "LANA": 105, "LANI": 285, "needed": 855, "\u8832": 4291, "master": 7216, "hiyo": 268, "\u71b7": 166, "0052": 551, "hiya": 323, "genesis": 408, "hiye": 149, "mpiana": 10, "/05/200": 74, "\u6211\u5bb6": 164431, "signatur": 6, "\u5916\u5a92": 26846, "0055": 636, "Daddy": 1361, ".680": 433, "ahmed": 15, "\u592a\u539f": 165584, "SPAN": 1018, "\u7ee9": 384555, "ferien": 5, "SOCI": 449, "varje": 9, "ahmet": 389, "pples": 246, "\u2581Natha": 21, "SPAR": 2229, "\u5bfb": 819620, "SPEED": 1748, "vnit": 10, "275": 24046, "\u2581propi": 2, "(1974": 5872, "evangeli": 65, "Chicago": 2864, "\u4f88": 105848, "\u2581prope": 5, "\u750f": 680, "(1979": 9053, ".688": 530, "\u2581Nacht": 12, "\u2581propr": 1, "\u2581propu": 1, "pecu": 108, "2.79": 3624, "sitio": 46, "2.70": 5455, "2.73": 3897, "2.72": 3974, "2.75": 7925, "2.74": 3986, "2.76": 3908, "vika": 136, "ilhelm": 2571, "They": 6755, "affaire": 43, "vgu": 225, "\u2581Netflix": 84, "immobiliare": 7, "vgr": 99, "5.80": 4856, "\u2581sense": 15, "kariya": 26, "\u2581Assistant": 24, "\u5f53": 5182519, "\u53e4\u5178": 235297, "kiye": 69, "majo": 71, "maji": 144, "kiya": 128, "kell": 86, "kiyo": 152, "\u2581right": 129, "guva": 9, "maja": 99, "tech": 8079, "ampu": 30, "teca": 225, "silber": 5, "\u2581layer": 12, "14-18": 2056, "\u6989": 7836, "Helvetica": 376, "percuss": 3, "\u2581Granit": 10, "torios": 8, "\u4e9a\u535a": 1043, "\u2581reconn": 1, "otella": 75, "\u50a3": 40986, "\u767e\u79d1": 146326, "Lower": 1148, "restaur": 21, "entador": 724, "\u2581functional": 16, "\u4f9b\u5e94\u94fe": 110665, "magani": 1, "luba": 44, "\u9536": 8855, "\u2581consiste": 1, "plate": 2253, "\u80c3": 725406, "venez": 34, "\u2581purpose": 7, "Neurolog": 316, "venes": 53, "ficit": 139, "\u2581Prek": 1, "iate": 315, "\u7f16\u8f91": 726796, "ithal": 19, "ficil": 2, "venen": 22, "iatr": 145, "\u5ce5": 29858, "platy": 452, "platz": 706, "\u2581piu": 6, "\u2581Parti": 34, "jaguar": 23, "awangan": 20, "\u4e10": 47347, "aaday": 3, "\u5b6a": 13966, "patch": 1150, "\u2581Party": 159, "Ecologi": 72, "iyasa": 48, "Pablo": 1192, "\u2581Bluetooth": 90, "iyasi": 8, "4.7": 61983, "etim": 23, "etin": 846, "tlho": 6, "\u9662\u6821": 507449, "etik": 60, "ctvo": 2, "\u77e9": 329375, "zahlen": 22, "tlha": 4, "etib": 4, "etic": 728, "\u2581(23)": 2208, "10:00": 28603, "\u8c1b": 56726, "ZEM": 108, "\u2581Marcin": 6, "4.6": 61923, "EIRA": 107, "loty": 53, "erud": 48, "lots": 709, "\u7ea7\u522b": 299047, "batera": 1, "irt": 426, "motional": 65, "lotu": 35, "lott": 227, "iri": 1518, "\u2581830": 148, "loto": 246, "iro": 2282, "%%%": 807, "ira": 3073, "ire": 4326, "lote": 58, "\u59be": 64288, "\u6211\u5c31": 562158, "discipline": 448, "\u2581Aff": 354, "natura": 68, "ZET": 330, "extend": 695, "nature": 1958, "yklus": 12, "\u2581Afi": 3, "\u2581Somme": 4, "Eesti": 39, "lskiej": 3, "erum": 152, "\u2581festival": 3, "\u89de": 18682, "+10": 12950, "+16": 4195, "biografi": 1, "\u2581reel": 8, "+18": 1833, "erup": 143, "\u826f": 1360114, "\u8bbf": 807097, "+1)": 6844, "HNA": 147, "Apartment": 8286, "HNE": 174, "\u2581dollar": 7, "igkeiten": 29, "rzad": 37, "niye": 45, "felicidad": 12, "niya": 236, "\u621a": 200996, "assun": 35, "3.82": 3317, "3.81": 2901, "\u673a\u53f7": 3444, "3.87": 3384, "3.86": 3484, "fre": 1055, "3.84": 3973, "\u2581Rick": 255, "3.89": 3315, "\u2581Dime": 5, "kastel": 47, "\u2581Rico": 41, "frm": 409, ".": 10895300, "\u2581rural": 5, "much": 5808, "muco": 330, "fru": 780, "fry": 282, "linist": 57, "spir": 448, "spis": 339, "difficil": 75, "hepr": 38, "regul": 608, "kkaat": 3, "spit": 318, "\u774c": 44, "arkii": 31, "arkiv": 29, "1674": 3725, "ziewczyn": 2, "\u2581procedur": 4, "spie": 349, "faktor": 8, "spin": 2007, "18:40": 1433, "spil": 375, "kkaan": 8, "\u53e4\u57ce": 142160, "oordenad": 2, "oraya": 86, "\u53ce\u76ca": 23, "\u2581ANTI": 37, "administrative": 333, "alpen": 50, "intas": 73, "Icon": 2679, "desta": 29, "unor": 132, "unos": 316, "koho": 35, "ogne": 676, "unod": 44, "ogna": 773, "\u8717": 65168, "unog": 11, "unoh": 69, "5055": 1501, "5056": 681, "\u8fbe\u5230\u4e86": 170557, "5050": 6563, "ogni": 832, "5052": 1071, "hond": 174, "hong": 7109, "alimentation": 6, "\u914d\u9001": 135530, "lacrim": 62, "honn": 117, "honi": 312, "ikasi": 23, "\u540e\u671f": 329226, "\u7039": 1745, "fiques": 14, "viertel": 45, "szego": 3, "Maybe": 1673, "\u554b": 83, "\u2581Constan": 6, "\u2581\u5e78\u8fd0\u5feb": 1, "\u540e\u6765": 1216158, "NATION": 316, "Harley": 587, "2011/09/": 77, "!!!!!!!!": 3159, "EBE": 1123, "Hostal": 96, "EBA": 8185, "EBL": 179, "EBO": 682, "EBI": 1663, "\":1,\"": 33, "academic": 840, "academia": 32, "\u4fdd\u7ba1": 108487, "EBR": 473, "EBS": 1589, "lletti": 65, "Table": 3392, "\u2581vika": 2, "corporate": 616, "\u6781": 3022731, "promete": 1, "\u8004": 6737, "utdanning": 3, "bernu": 6, "????": 65787, "lassa": 68, "lasse": 137, "monika": 22, "\u2581agen": 2, "\u4e9b": 657479, "edido": 8, "hah": 398, "hai": 4663, "haj": 119, "hak": 436, "hal": 2978, "ham": 11845, "han": 42130, "hao": 4994, "endum": 94, "Oscar": 2117, "hab": 1168, "hac": 327, "had": 9639, "hag": 293, "****************": 8881, "hay": 599, "haz": 126, "\u2581sian": 8, "endus": 179, "endur": 307, "hap": 473, "mulyo": 4, "har": 6000, "has": 15050, "hat": 6159, "Karaoke": 581, "hav": 232, "haw": 163, "ingine": 26, "municipal": 179, "AKTA": 136, "dagan": 19, "elders": 120, "Setup": 1679, "FJF": 37, "\u2581Dura": 32, "cessit": 168, "12:39": 67, "12:38": 105, "12:35": 538, "12:34": 103, "12:37": 100, "12:36": 101, "12:31": 97, "12:30": 6487, "12:33": 140, "12:32": 119, "ctima": 14, "\u71e5": 138968, "\u2581Bade": 1, "Brenda": 1160, "ordne": 9, "\u2581Garage": 40, "\u2581Uni": 2172, "ntwerp": 14, "8035": 449, "8037": 665, "8031": 524, "8030": 723, "alenciaga": 806, "8032": 489, "czech": 13, "kapte": 4, "crown": 617, "\u548c": 50632089, "Estat": 1918, "fissi": 121, "azienda": 27, "fissa": 33, "bottom": 2394, "utset": 56, "\u258113.5": 454, "Facebook": 35683, "\u258113.3": 909, "\u258113.0": 48, "lejn": 6, "ichia": 532, "\u2581Topl": 1, "abian": 205, "analitik": 1, "isopro": 171, "Vyb": 36, "\u258111.00": 14, "Vyd": 11, "\u548c\u98df": 14941, "braccia": 32, "gyszer": 5, "\u2581Minami": 8, "SIZE": 1201, "ushki": 16, "\u2581contr": 3, "2016/09/": 184, "klubber": 1, "ushka": 144, "\u2581kakao": 1, "acob": 158, "cular": 1168, "culas": 62, "acog": 76, "\u2581organiz": 7, "\u6211\u5e02": 184476, "klubben": 23, "howr": 25, "Schul": 1839, "geplan": 17, "\u51cf\u80a5": 262901, "kamaka": 15, "\u9f10": 8580, "igencia": 8, "brenn": 23, "\u7422": 83600, "fabric": 704, "1600/": 1410, "16000": 11649, "5868": 579, "raper": 572, "\u2581jij": 11, "5860": 1600, "ittimet": 2, "6950": 813, "altan": 27, "pfen": 35, "lanque": 24, "budak": 3, "\u2581Jehova": 5, "\u2581used": 46, "\u62d9": 66068, "bazi": 124, "\u4e66\u6cd5": 629557, "bazo": 187, "baza": 154, "VICE": 917, "baze": 14, "\u2581intensiv": 1, "County": 7925, "isku": 49, "ARTO": 229, "iskt": 22, "\u6211\u5f88": 213445, "SEIKO": 382, "\u6280\u80fd": 986576, "\u2581march": 9, "passenger": 633, "\u2581sui": 8, "\u2581suo": 8, "\u2581sun": 121, "\u2581sum": 31, "\u2581sul": 10, "\u2581suc": 5, "\u2581sub": 180, "Tales": 1718, "mirror": 970, "\u2581sug": 3, "\u2581Koc": 13, "\u2581der": 41, "\u2581sud": 32, "\u2581raja": 3, "\u2581Kamer": 19, "usnya": 1, "\u2581Kob": 30, "\u9ebb\u70e6": 232800, "ifferential": 1647, "\u6398": 210876, "\u2581sup": 31, "\u2581suv": 28, "\u2581suu": 1, "ritti": 38, "\u7684\u6837\u5b50": 197974, "\u2581Kog": 4, "ritto": 84, "\u2581Santiago": 45, "\u4e3b\u6301": 717492, "\u4eba\u6c11\u7f51": 27585, ".729": 515, "oitu": 7, "kkar": 22, ".723": 561, "&#23": 6, ".720": 1188, "\u2581Kok": 17, "\u2581user": 114, "loret": 36, "Idx": 40, "\u96c9": 23913, "\u2581ACC": 142, "\u2581Kom": 19, "2016/11/": 934, "Ids": 88, "\u2581ACE": 278, "\u2581Kol": 38, "\u9e51": 23894, "palma": 336, "lored": 117, "eacute": 99, "danske": 17, "edor": 283, "\u2581ACT": 1291, "\u2581friendly": 7, "\u7363": 2633, "\u2581Telefon": 4, "imming": 196, "\u2581duc": 1, "poved": 5, "\u2581Savo": 15, "\u2581dul": 2, "5.16": 3419, "\u96fe": 463304, "urgia": 50, "chail": 46, "corps": 265, "5.15": 4777, "\u2581vanda": 1, "egbe": 29, "Trending": 47, "\u2581Clean": 116, "chair": 1371, "egbu": 8, "8866": 1565, "8867": 798, "ballet": 187, "\u2581Consider": 16, "\u7aef\u672b": 404, "\u7684\u9009\u62e9": 228586, "\u7126": 579438, "QUOTE": 106, "lara": 547, "8868": 915, "\u2581seminar": 1, "emballage": 1, "\u82f9\u679c\u624b\u673a": 13228, "886.": 1211, "\u5916\u51fa": 310558, "Pas": 7135, "machi": 1256, "\u6840": 25529, "jero": 33, "\u25812.1.1": 2594, "jeri": 21, "lare": 578, "jerk": 222, "\u2581LUM": 23, "\u2581dus": 4, "\u5bcd": 79, "cosmetics": 106, "nawi": 47, "\u2581sports": 16, "ownie": 71, "jeru": 12, "Indigo": 765, "\u4f5a": 42183, "exact": 847, "rimit": 12, "minute": 1482, "jerr": 48, "\u5171\u548c\u56fd": 164770, "Holder": 376, "\u2581legs": 2, "\u8bed": 3917028, "\u2581Wander": 23, "berita": 2, "\u610f\u5927\u5229": 419809, "\u2581lego": 6, "\u6709\u4e00\u4e2a": 650721, "otravin": 399, "TUDE": 313, "\u3011\u300e": 124, "/11/15": 107, "/11/14": 76, "/11/17": 78, "/11/16": 107, "/11/10": 141, "/11/13": 90, "\u2581epist": 10, "\u2581Escal": 3, "Silvia": 488, "/11/19": 120, "/11/18": 98, "runko": 55, "buur": 22, "cherez": 1, "buut": 4, "\u2581nomo": 1, "ogled": 6, "\u646e": 2718, "\u2581nome": 2, "\u5f25": 352322, "matrac": 2, "vorder": 15, "burch": 65, "300": 606779, "JU": 3212, "\u86b4": 7661, "nacak": 1, "302": 22134, "Me": 58247, "Mg": 12087, "Ma": 25351, "oldier": 1051, "\u6709\u4e00\u4e9b": 215225, "Mo": 57749, "Mi": 26930, "ontrovers": 179, "Mu": 16494, "\u2581cruci": 13, "Mw": 590, "\u5f22": 3774, "Mq": 31, "Mp": 1787, "address": 2046, "sirink": 1, "307": 19169, "My": 48899, "Mx": 662, "\u665f": 45042, "Mz": 251, "ME": 29413, "MD": 25787, "MG": 33515, "MF": 17475, "MA": 52526, "MC": 27305, "MB": 141835, "MM": 66369, "ML": 31313, "MO": 19508, "MN": 5719, "MI": 16714, "MH": 13403, "MK": 17500, "MJ": 8756, "MU": 9596, "MT": 43070, "MW": 30260, "MV": 83096, "MQ": 4262, "MP": 203307, "MS": 65122, "MR": 31215, "\u7c7e": 140, "MY": 10894, "MX": 40995, "Jardin": 589, "MZ": 4348, "\u2581Moll": 78, "\u771f\u5b9e": 758514, "\u2581Molo": 31, "tager": 59, "\u2581Moli": 8, "\u2581Mold": 41, "\u2581Mole": 71, "IVERS": 220, "ERROR": 965, "EXCEL": 5928, "\u2581Mola": 10, "\u4f20\u627f": 270137, "gesicht": 6, "13,1": 2419, "13,2": 1037, "bigan": 96, "soul": 3091, "13,8": 626, "\u829d": 431473, "Davidson": 807, "2015-2016": 5377, "\u258158.": 2412, "wand": 1375, "\u258158,": 60, "\u2581comma": 9, "\u2581Hob": 4, "alimentaire": 13, "\u762a": 12029, "optimize": 272, "\u2581588": 106, "\u2581589": 103, "\u5b89\u7f6e": 213354, "\u2581582": 117, "\u2581580": 237, "\u2581581": 177, "\u2581586": 95, "\u2581584": 126, "\u2581585": 104, "chelle": 314, "miehi": 1, "specula": 207, "\u2581value": 90, "ABAN": 79, "\u2581vibr": 1, "Zentrum": 127, "\u7f8e\u8054\u50a8": 117640, "termal": 7, "\u2581Camar": 21, "nnande": 1, "Alfa": 1080, "\u948e": 12533, "Irin": 488, "\u835c": 2809, "KULT": 35, "egeri": 223, "edemption": 405, "Pays": 359, "etiqueta": 1, "\u80f1": 66398, "urtu": 20, "JJJ": 302, "rangement": 43, "following": 2442, "\u747e": 54965, "\u2581fertil": 3, "ishga": 8, "Barz": 155, "zlei": 24, "\u6307": 2669257, "MATERIAL": 399, "-03-30": 1607, "-03-31": 1761, "\u2581hist": 6, "\u2581Muha": 2, "\u2581hiss": 3, "zlet": 23, "zler": 289, "litre": 88, "wany": 104, "litra": 13, "\u25811:1": 269, "\u5429": 16608, "litro": 8, "\u2581Esko": 12, "skikh": 27, "\u81b0": 137, "Dumb": 417, "absolute": 578, "\u2581DELL": 481, "okud": 121, "stapel": 7, "\u71a0": 34861, "\u2581muda": 2, "Sicilia": 121, "\u72d2": 6029, "\u2581Lithuania": 6, "38": 212376, "\u592a\u5927": 173529, "\u258118:30": 235, "JO": 4398, "surfing": 242, "\u5fe4": 8491, "\u592a\u591a": 474674, "erindi": 25, "erinde": 27, "acional": 662, "\u2581Erde": 7, "\u597d\u8bc4": 254879, "laukia": 2, "bisa": 115, "\u527d": 12623, "\u2581Iron": 178, "\u2581Walt": 115, "nsh": 2639, "LIF": 534, "LIG": 327, "LIA": 1013, "LIB": 989, "LIC": 1237, "LIL": 360, "LIM": 1983, "LIN": 5735, "LIO": 390, "LII": 326, "LIK": 184, "\u7391": 18512, "LIU": 1280, "LIV": 456, "LIP": 1555, "LIQ": 161, "LIR": 562, "LIS": 2860, "\u2581Wall": 192, "LIX": 193, "\u2581Wali": 7, "LIZ": 297, "\u2581Walk": 163, "jie": 4295, "illan": 518, "jia": 5943, "jin": 10929, "\u6aab": 2316, "jim": 836, "jik": 254, "jih": 696, "eserci": 5, "jit": 833, "jir": 288, "jis": 280, "\u2581laten": 2, "illas": 276, "\u5e38": 2612420, "\u2581Saya": 24, "\u2581Muslim": 3, "\u973e": 81091, "\u56fd\u8003": 33714, "\u9acb": 24484, "\u2581cable": 34, "sorter": 21, "\u2581voi": 81, "\u55d5": 81, "emmelig": 1, "PIER": 429, "\\": 153848, "\u2581News": 128, "\u5962": 226117, "dida": 1122, "dido": 244, "didi": 510, "Yellow": 3916, "cadence": 102, "\u2581huis": 3, "\u4e1a\u6709\u9650\u516c\u53f8": 164067, "quarter": 1246, "roche": 360, "migr": 17, "Maritim": 801, "\u2581KC": 271, "salade": 13, "\u6700\u7f8e": 157933, "\u2581Nish": 3, "1174": 2924, "entering": 203, "\u2581Therm": 26, "1173": 2728, "\u5c0f\u8bf4": 3245267, "lesson": 924, "\u2581There": 1314, "hongkong": 191, "\u9e23": 478742, "rsko": 12, "rska": 96, "\u692d": 161769, "\u2581leas": 1, "rsky": 207, "\u8ba1\u5212": 2429014, "0033.": 158, "atrice": 920, "ilun": 154, "\u2581Was": 120, "Kapitel": 112, "\u5916\u5305": 92987, "byty": 17, "\u63c6": 9780, "bytu": 9, "palang": 10, "telia": 59, "bytk": 2, "byte": 1937, "\u2581Alert": 33, "telin": 23, "\u5ae0": 909, "ecnico": 23, "nisce": 7, "\u2581Vive": 35, "nisch": 199, "21:38": 108, "HEAT": 856, "Lento": 96, "husband": 743, "21:36": 98, "21:35": 691, "jednodu": 2, "\u2581Wax": 18, "\u6c85": 32326, "\u4fdd\u7559": 347924, "\u6548\u76ca": 412864, "tamari": 44, "\u5012": 1613656, "\u2581Bunga": 2, "/02/2017": 5, "oksen": 9, "/02/2019": 1, "\u5f3a\u8c03": 451403, "likooli": 1, "howbiz": 71, "Monday": 1488, "SCRIPT": 437, "mbwe": 42, "mbwa": 18, "AGENT": 234, "degi": 13, "ificatie": 1, "intill": 68, "Palom": 486, ":2016/10/": 526, "\u6d44": 1866, "erischen": 14, "cad": 4775, "Excellent": 573, "ilised": 1, "Histori": 272, "NERO": 730, "\u2581heroi": 3, "History": 5145, "\u6b21\u5143": 28877, "\u2581Gott": 129, "\u2581feny": 2, "Expir": 208, "\u7a76": 372703, "\u53fb": 9609, "\u2581fenn": 123, "\u8001\u767e\u59d3": 120251, "\u2581DIS": 132, "%95%": 1726, "emek": 203, "emed": 447, "turned": 936, "getto": 923, "476.": 1547, "\u2581DIA": 168, "4763": 552, "<\\/": 105, "\u2581DIE": 23, "4766": 619, "emet": 512, "atuaje": 2, "borough": 1763, "gaaga": 2, "\u2581DIN": 319, "zod": 119, "jira": 157, "zog": 606, "zoj": 54, "zok": 98, "\u592a\u5b50": 177898, "zom": 319, "zon": 1885, "zoo": 1385, "zor": 610, "zos": 238, "zot": 185, "zou": 743, "zov": 346, "mayer": 282, "plattform": 3, "bolli": 16, "aggel": 5, "\u8981\u56e0": 7978, "\u6700\u7ec8": 1079891, "agged": 350, "sdien": 8, "\u258130/0": 5, "\u8d85\u5e02": 309319, "&#160;": 158, "erton": 638, "ceived": 1282, "textarea": 85, "rochi": 375, "Viru": 117, "\u69ec": 22, "ulang": 200, "touche": 349, "ceiver": 167, "\u2581lond": 4, "\u2581long": 223, "\u2581pada": 3, "bereite": 1, "\u2581pade": 1, "\u2581activity": 14, "syll": 268, "\u5927\u4eba": 155833, "\u2581potenti": 2, "Ethiopia": 186, "bereits": 8, "sylv": 439, "\u6d16": 24, "assini": 252, "\u2581Petrol": 7, "8:42": 302, ".257": 467, ".255": 1152, ".254": 494, "\u91ce\u515a": 4069, "\u2581Stiefel": 1, "ambo": 2033, "\u2581Petrov": 9, "ouche": 441, "\u5927\u4e8b": 129425, "Thriller": 735, "ambi": 661, "ielkopolskie": 5, "assina": 112, "antrieb": 1, "\u8fdb\u4e86": 173413, "\u2581livre": 1, "Waxa": 10, "ceira": 20, "Buty": 1145, "izual": 7, "Ostrava": 35, "YEK": 21, "YEL": 107, "YEN": 315, "racat": 27, "rzysztof": 209, "tikt": 1, "YED": 54, "tikh": 20, "Facilities": 234, "udnik": 26, "\u2581Isto": 3, "istopad": 12, "\u5ef7": 423081, "tiko": 66, "pimo": 25, "YES": 5401, "ertain": 494, "\u6211\u548c": 240431, "mobiliari": 9, "kkake": 21, "ukket": 11, "\u4f9b\u5e94": 331870, "anuari": 41, "\u2581Konf": 12, "\u5973\u6027\u7528": 991, ".875": 1360, ".872": 410, ".871": 525, "\u2581Kuni": 12, "\u2581percent": 5, "\u2581Kung": 62, "\u2581resolu": 4, "titik": 2, "flokkur": 20, "832": 9176, "833": 4994, "830": 15507, "831": 9204, "836": 8534, "837": 9148, "834": 6665, "835": 8159, "\u6700\u540e\u4e00": 263123, "838": 9829, "839": 8668, ")==": 38, "kilometer": 178, "wasch": 37, "vender": 535, "83)": 2147, "tsum": 247, "\u804c\u8d23": 567904, "\u2581interfer": 2, "VGA": 55134, "\u5a4f": 33, "83]": 335, "fiq": 121, "\u9355": 23, "ngkung": 157, "entium": 15503, "\u2581Akan": 9, "\u2581estra": 2, "-2016,": 688, "melke": 4, "kazino": 6, "Konya": 112, "fix": 2525, "\u6b21\u56de": 10360, "\u591a\u79cd": 957897, "erder": 130, "\u2581Liza": 12, "sperimenta": 2, "paham": 1, "\u5482": 4911, "\u6a61\u80f6": 172068, "\u2581financi": 2, "erden": 171, "entagon": 211, "kinne": 43, "kinni": 3, "west": 2180, "\u2581comen": 1, "uccessful": 208, "wesi": 169, "iscono": 3, "motiver": 1, "nyckel": 29, "\u2581Schle": 12, "vuf": 9, "gget": 63, "uod": 80, "gosudarstv": 2, "gger": 1072, "photos": 1674, "\u5b9f\u884c": 118, "\u5b98\u65b9\u5e73\u53f0": 1166, "hashtag": 72, "gged": 442, "\u2581panel": 7, "yzm": 150, "eidet": 9, "\u7ce1": 4, "dinta": 2, "Hil": 2791, "anira": 24, "ivel": 275, "iver": 536, "ives": 1459, "qidi": 96, "protokoll": 1, "\u6ce8\u91cd": 452969, "fim": 346, "vul": 1473, "ERING": 711, "Size": 2817, "\u2581Dresden": 1, "vum": 489, "teza": 35, "Pred": 463, "technologi": 34, "zucker": 5, "\u2581Tepe": 2, "Helikopter": 3, "\u2581sanguin": 1, "\u2581Regul": 17, "unterschied": 10, "\u2581Tepl": 2, "Prev": 477, "technology": 4783, "Admiral": 1003, "odje": 13, "\u5927\u4f17": 444094, "\u2581comer": 2, "\u2581betul": 2, "777.": 1283, "777-": 302, "\u5927\u4f1a": 658926, "ernika": 15, "7777": 1627, "7776": 251, "Blood": 5673, "otto": 4139, "7770": 368, "\u7839": 773, "otte": 774, "7779": 425, "7778": 638, "IRY": 49, "\u6ec2": 8180, "\u5927\u4f7f": 89200, "\u5d4b": 8863, "IRS": 1300, "IRT": 1549, "IRU": 141, "elina": 4082, "XVI": 413, "IRI": 1314, "Mar": 43398, "IRL": 241, "odka": 360, "Clean": 2449, "IRO": 1088, "IRA": 1449, "IRB": 467, "IRC": 4517, "IRD": 682, "IRE": 2094, "uolo": 81, "\u2581yoru": 4, "\u5927\u4f53": 71158, "\u597d\u8fd0": 57679, "60,000": 3466, "\u8d6b": 512166, "katedral": 18, "\u2581Bong": 20, "antur": 85, "\u63f4": 267036, "Membran": 590, "1,90": 1384, "\u2581158": 682, "\u2581A": 120364, "\u2581@": 5562, "\u2581C": 79884, "\u2581B": 78757, "\u2581E": 31124, "\u2581D": 50099, "\u2581G": 27597, "\u2581F": 34827, "being": 4793, "\u2581H": 23267, "\u2581K": 22965, "\u2581J": 15171, "\u6211\u56fd": 1310307, "NAO": 828, "NAL": 2027, "\u2581(7)": 40805, "\u2581Q": 27673, "\u2581P": 38698, "\u2581S": 50458, "\u2581R": 26079, "\u2581U": 11458, "\u2581T": 28281, "\u6c14\u8d28": 228636, "\u2581V": 21357, "\u2581Y": 8451, "\u2581X": 15751, "\u2581[": 227017, "\u2581Z": 9672, "\u2581(78": 17, "\u2581^": 1622, "wblock": 1, "irty": 864, "\u2581c": 28097, "\u2581b": 33985, "\u2581d": 18325, "generator": 491, "\u2581f": 7922, "Yumi": 858, "\u2581h": 4181, "\u2581k": 2174, "\u2581m": 4992, "usong": 150, "\u2581q": 1186, "\u2581p": 22526, "AGE": 3599, "\u2581w": 2438, "\u2581v": 14830, "\u2581SUS": 343, "\u2581SUR": 56, "\u2581{": 4160, "\u2581z": 1344, "\u2581}": 541, "\u2581SUV": 434, "zion": 198, "Levitra": 9, "rompe": 54, "\u6248": 23884, "SAFE": 1600, "vimo": 27, "sumo": 238, "Token": 958, "adema": 97, "traffic": 1036, "preference": 394, "rompt": 247, "\u8da3\u5473": 183139, "zios": 39, "\u6548\u7387": 604837, "tudier": 4, "seyn": 16, "\u2581#": 9420, "\u2581\"": 48456, "\u2581%": 4464, "\u2581$": 215, "alam": 316, "\u2581&": 9874, "\u2581(": 3554201, "\u2581+": 14513, "\u2581*": 126219, "\u25811": 1251293, "\u25810": 15404, "\u25813": 902486, "\u25812": 1047198, "\u25815": 492060, "\u25814": 661206, "\u25817": 271832, "\u25816": 359710, "\u25819": 177752, "\u25818": 224279, "\u4eba\u6c11\u7684": 118874, "pomog": 1, "\u2581<": 406468, "\u2581>": 12232, "Case": 6115, "atorie": 30, "\u2581Implement": 6, "atorii": 3, "ansvar": 35, "FLASH": 11034, "\u5c8c": 17182, "atorio": 115, "\u592a\u5e73": 185969, "\u2581seit": 1, "scriptive": 187, "DELE": 336, "9888.": 34, "ajanje": 1, "\u2581Iwa": 48, "\u2581TUT": 20, "\u2581Kamu": 2, "\u2581TUR": 141, "\u2581Kamp": 17, "(36)": 1764, "likvid": 4, "\u871c": 591670, "\u2581Kame": 18, "hamba": 142, "\u2581Kamb": 4, "\u2581Kama": 39, "\u2581Kamo": 5, "\u2581Proper": 4, "\u2581Kami": 39, "elebrities": 129, "02/10": 135, "Resur": 105, "planety": 4, "Ja": 15961, "DELL": 2980, "Gaul": 969, "graaf": 38, "\u6c57": 468698, "thailand": 25, "handi": 211, "Hw": 304, "Jb": 132, "etmeye": 2, "anlarda": 1, "\u66f0": 634854, "esaka": 22, "\u69d4": 683, "livell": 21, "\u2581Chiar": 24, "rosse": 354, "\u7095": 18728, "rossa": 194, "fizik": 2, "pivot": 171, "rosso": 350, "rossi": 232, "\u2581punct": 4, "\u55a7": 79410, "Peninsula": 694, "onfidencial": 10, "Calder": 625, "\u5916\u56f4": 64611, "2\",\"": 32, "brazilian": 16, "bubble": 647, "\u5916\u56fd": 287744, "dormir": 26, "\u2581Heng": 19, "tagning": 1, "wits": 273, "\u2581Henk": 14, "\u2581Henn": 34, "witz": 831, "yaya": 840, "wite": 31, "yaye": 31, "osis": 1344, "societat": 4, "\u2581profund": 1, "\u6ad9": 13, "with": 80620, "\u55bb": 270196, "yayo": 12, "\u6c14\u8c61": 327202, "allas": 163, "Berez": 88, "\u666e\u4eac": 32381, "rage": 1134, "ragh": 167, "ragi": 191, "osio": 60, "puasa": 1, "\u2581serve": 12, "390": 21796, "dirty": 644, "ragu": 455, "\u2581servo": 1, "\u2581servi": 3, "trips": 280, "itatis": 125, "artigian": 23, "munda": 150, "\u2581spend": 25, "Cinderella": 602, "\u8b71": 22, "watches": 214, "08:10": 341, "munds": 274, "\u8821": 21870, "\u5dee\u8ddd": 208039, "\u2581yi": 88, "cream": 2746, "enheim": 933, "cvsh": 2, "yogi": 87, "freunde": 41, "\u2581Whe": 23, "\u6631": 27433, "1446": 2354, "1445": 3454, "1444": 2929, "1443": 2316, "1442": 2612, "1441": 2875, "1440": 9471, "TTGA": 88, "Lady": 10323, "enheit": 193, "1449": 3169, "1448": 2751, "\u2581469": 130, "\u2581468": 171, "\u2581465": 166, "\u2581464": 178, "\u60ca": 1110165, "\u2581461": 206, "\u670d\u7528": 196620, "\u2581463": 136, "\u2581462": 219, "\u258146,": 90, "\u258146.": 3847, "akitan": 35, "\u2581Bullet": 22, "\u6211\u5728": 387050, "signaler": 2, "\u2581morr": 2, "\u2581Gab": 53, "\u2581Gag": 11, "\u2581Gaf": 13, "\u2581mort": 6, "\u2581Gad": 31, "\u2581Hydrauli": 12, "\u2581Gaj": 12, "thorn": 1282, "\u2581depi": 2, "\u2581Gan": 78, "\u2581Gam": 25, "\u2581Gal": 126, "\u2581Gas": 64, "\u2581Gar": 161, "\u2581Gap": 49, "\u2581Gaw": 5, "\u2581Gav": 59, "\u2581Gau": 80, "\u2581more": 122, "\u2581Gaz": 12, "\u2581Gay": 642, "\u2581AUDI": 22, "\u75fc": 4256, "rantz": 558, "\u8ba9\u4eba": 704700, "resor": 147, "\u2581gott": 28, "\u612d": 147, "\u2581Jing": 120, "ceramic": 584, "\u820c": 304522, "ffektiv": 1, "\u65e2\u7136": 244117, "ledare": 3, "[];": 83, "\u2581latin": 6, "\u2581Stab": 10, "norr": 378, "\u4ee5\u4e0a": 2248289, "\u2581Staf": 3, "\u2581Stag": 7, "\u2581Stad": 24, "\u6926": 8, "\u4fdd\u6e7f": 74346, "\u2581Schwa": 8, "\u5927\u529b": 525997, "\u2581Stal": 10, "\u2581Schwe": 16, "\u2581Star": 835, "\u7cb3": 39277, "\u2581Stav": 10, "\u2581Stat": 47, "nord": 234, "nork": 62, "nori": 412, "\u2581Stay": 229, "norm": 667, "ishni": 4, "feria": 37, "4-0": 5335, "ussie": 164, "pple": 156, "4-1": 10424, "\u2581Rong": 31, "4-2": 6408, "ussin": 544, "\u2581Delivery": 17, "Conversation": 672, "ksikan": 1, "3:40": 826, "ferit": 18, "\u2581Kabar": 1, "4-4": 5693, "\u575a": 891594, "4-5": 57080, "sans": 1139, "\u4e8c\u80ce": 30431, "adina": 307, "4-7": 11383, "2.2020": 25, "\u8ba9\u4ed6": 337712, "ayton": 1064, "sane": 310, "onvertible": 346, "Bismillah": 6, "sana": 826, "linguisti": 17, "\u4fdd\u6e29": 118027, "\u2581jalan": 3, "sani": 215, "199": 77017, "198": 33042, "195": 28838, "194": 20461, "197": 21431, "196": 24775, "191": 19162, "190": 61460, "193": 21154, "192": 27581, "19.": 71845, "19)": 7056, "\u4e94": 4621041, "19%": 18110, "aduse": 4, "\u2581possess": 3, "\u5c0f\u91ce": 15461, "otok": 110, "\u2581Intim": 5, "\u591a\u6469": 4230, "\u2581dres": 1, "leis": 328, "delen": 49, "\u6ce8\u518c\u9080\u8bf7\u7801": 35, "\u5177\u6709": 3036403, "\u5927\u5207": 4941, "\u5927\u5206": 12157, "\u6700\u65b0": 572521, "lein": 783, "deles": 111, "strate": 476, ":70": 6244, "\u2581dren": 1, "otot": 45, "otou": 122, "leid": 122, "4-%": 3, "\u2581Kret": 3, "hash": 1847, "hebel": 22, "Hiro": 1567, "hasa": 1268, "\u65ce": 17442, "ganda": 189, "gande": 41, "irement": 26, "gandi": 71, "gandh": 57, "gando": 33, "Spencer": 1819, "19]": 209, "Concept": 3188, "\u2581Studio": 494, "\u2581bety": 1, "\u6700\u65e9": 343412, "\u2581Studie": 2, "periodic": 440, "\u8e7f": 12543, "kacha": 57, "Scorpio": 452, "pling": 781, "Filip": 865, "\u5927\u53a6": 252553, "ileta": 6, "ivista": 20, "3452": 597, "3453": 617, "3450": 3126, "3451": 500, "3456": 2154, "3457": 772, "3454": 635, "3455": 727, "3458": 877, "3459": 761, "mort": 682, "zyka": 6, "\u8fdb\u53e3": 435793, "\u2581discu": 10, "\u5927\u5385": 123276, "mori": 1269, "\u2581Szo": 2, "\u2581discr": 2, "mora": 590, "345.": 2067, "4.500": 233, "more": 23578, "adera": 145, "\u5145\u5206": 784233, "YTE": 504, "\u5fc5\u8981": 630975, "aderi": 32, "adero": 235, "adern": 36, "biam": 19, "-236+": 1, "4,900": 555, "bian": 8875, "\u2581Krem": 5, "Couch": 392, "\u5c31\u662f": 4850567, "\u5c5e": 2391069, "ciga": 27, "\u5927\u53d1": 29933, "\u8fdb\u53bb": 218686, "\u4fe1\u8a89\u7f51": 48, "\u5113": 48, "lerle": 5, "bancar": 10, "articulo": 3, "learn": 3816, "etraf": 6, "\u6c7e": 77299, "mehl": 22, "ponta": 42, "8/2018": 2, "8/2019": 1, "Thiruv": 86, "ponte": 131, "8/2014": 16, "8/2016": 10, "mehe": 210, "8/2010": 20, "ponto": 75, "meha": 234, "boga": 166, "bonden": 7, "bekend": 2, "mehr": 149, "Glasgow": 692, "bogo": 80, "viano": 113, "huge": 766, "hugg": 208, "huga": 74, "scontra": 62, "scontro": 9, "hugo": 276, "viana": 114, "\u2581Cres": 16, "hugu": 308, "\u5ab2": 37125, "hugs": 142, "\u2581weekend": 9, "\u2581Cree": 70, "ritiba": 93, "\u591a\u6570": 283713, "\u2581IPS": 334, "\u2581succ": 7, "\u2581suce": 3, "\u2581gast": 2, "\u2581Montre": 1, "\u2581such": 56, "leinen": 1, "variant": 457, "\u2581sweet": 106, "bym": 193, "\u6ad2": 6, "tangga": 4, "615": 11647, "jasht": 1, "\u8ba9\u4f60": 659520, "\u795b": 150989, "jiang": 4329, "czyst": 2, "2018-2019": 955, "Nero": 2170, "sabit": 90, "\u5927\u534a": 53268, "roshe": 37, "\u666e\u53ca": 269639, "prabh": 99, "\u6700\u6709": 168398, "installed": 288, "\u6b91": 749, "paper": 5000, "scott": 1727, "\u8c14": 9717, "installer": 222, "akustik": 5, "6479": 786, "ragende": 4, "\u72ab": 81, "6470": 1380, "bangla": 6, "\u2581horas": 1, "isaan": 5, "bypass": 264, ",1,0,1,": 40, "\u2581Feminis": 2, "Brussels": 283, "sauce": 603, "\u82cb": 17558, "leistung": 29, "rlas": 9, "rlar": 23, "\u953b": 369537, "reactie": 3, "document": 2485, "\u533b\u7597": 1369734, "9.04": 1882, "ersailles": 336, "Koffer": 32, "PYR": 689, "Authority": 1393, "courses": 625, "reactiv": 45, "iainen": 37, "\u2581translate": 19, "ERON": 129, "\u9182": 724, "ummat": 10, "\u53ce\u5165": 31, "duses": 18, "vietu": 2, "\u8865\u507f": 260732, "eleman": 47, "Pasar": 882, "arashi": 222, "\u789c": 2610, "EROS": 360, "0325": 1112, "4045": 1838, "0327": 546, "4047": 968, "4040": 2809, "16.30": 1022, "4042": 814, "0322": 439, "ernik": 34, "gunan": 25, "chiff": 623, "0329": 512, "0328": 515, "\u2581Pool": 49, "research": 3709, "ernis": 46, "%85%": 1175, "\u517b\u8001": 356137, "gunar": 4, "Report": 4275, "offline": 619, "032.": 351, "\u88bc": 358, "handbags": 22, "Muze": 493, "\u6162\u6162": 425462, "\u7bc6": 133536, "\u2581assi": 1, "\u2581Horizon": 55, "\u594e": 127630, "awit": 133, "Solve": 750, "xploration": 901, "teknologi": 1, "MGA": 268, "idikan": 3, "\u59a7": 241, "\u6867": 20941, "\u8be6": 394667, "\u533b\u751f": 720662, "rrhe": 486, "MGM": 937, "nfluenza": 102, "\u5b71": 6833, "\u6fb3\u95e8\u5a01\u5c3c\u65af": 778, "giust": 15, "\u2581ord": 10, "Shade": 3057, "Elastic": 800, "\u2581ora": 24, "Dalam": 52, "12.30": 2376, "\u2581ori": 12, "Liege": 97, "\u2581aur": 11, "\u5197": 37084, "noma": 1028, "koshi": 132, "nome": 654, "amse": 54, "swipe": 201, "uizen": 32, "nomo": 663, "amsa": 89, "noms": 27, "saint": 484, "essays": 124, "ilium": 380, "<0x8A>": 68889, "\u4e0d\u4e00\u6837": 341905, "5.99": 4324, "\u5ec9": 559002, "5.90": 3357, "nachal": 30, "5.95": 3369, "iloj": 8, "olano": 146, "\u2581Batteri": 4, "elling": 491, "\u5256": 235717, "ellini": 773, "olana": 190, "ellino": 202, "Parlament": 39, "tobul": 7, "\u6ee9": 424383, "inoja": 5, "\u258125/0": 1, "\u6276": 559255, "Cancel": 578, "ijiet": 1, "odoro": 137, "kres": 57, "kret": 67, "calza": 11, "krev": 4, "mensch": 60, "\u5f88": 5049142, "odore": 1036, "+03:00": 8, "\u2581Politic": 6, "\u2581Elin": 16, "hinja": 5, "blond": 139, "\u2581Politik": 1, "\u600e\u4e48\u73a9": 14937, "hinji": 309, "krem": 64, "rdem": 151, "ustasi": 8, "Triangle": 696, "\u2581Baga": 5, "\u8865\u5145": 589454, "ibalo": 2, "ligheid": 9, "mian": 1196, "miah": 246, "\u2581Bagh": 16, "ulwa": 4, "miau": 27, "\u2581Uit": 4, "\u2581Bagu": 4, "(83)": 710, "geschichte": 124, "\u8fdb\u5165": 1940857, "\u2581varma": 1, "cofa": 13, "\u2581Anderson": 61, "ppari": 111, "\u2581Real": 787, "\u2581Kombi": 2, "Recreation": 480, "\u2581Read": 182, "prosti": 62, "\u875b": 509, "prosto": 40, "sumpt": 87, "\u4f53": 5167622, "uxiliar": 336, "ardzo": 7, "Protector": 370, "\u51ef\u53d1": 772, "\u5927\u5168": 65671, "OTH": 1210, "OTI": 656, "44]": 131, "OTO": 2374, "OTA": 20294, "OTC": 6191, "OTE": 853, "18:59": 946, "OTY": 321, "artea": 11, "18:50": 1048, "18:53": 94, "OTS": 999, "18:55": 471, "18:54": 85, "\u2581FAMIL": 9, "18:56": 77, "getElementsBy": 17, "-06-11": 609, "\u66d9": 67710, "-06-13": 770, "-06-12": 789, "-06-15": 859, "-06-14": 608, "-06-17": 851, "-06-16": 1158, "-06-19": 1304, "-06-18": 818, "juju": 295, "affin": 686, "Filtr": 86, "blender": 90, "\u2581electronic": 24, "urus": 2718, "/08/2015": 1, "/08/2014": 1, "/08/2013": 25, "Bass": 4507, "urut": 137, "Dirt": 273, "\u5c0f\u9547": 133217, "Premiere": 3182, "\u540e\u7684": 775444, "sseurs": 55, "urub": 68, "]],": 1284, "Base": 16394, "urug": 60, "Basa": 263, "\u52a0\u62ff\u5927": 290048, "uruh": 61, "urun": 503, "\u9e8b": 11744, "columns": 217, "\u2581USB": 19259, "\u90c3": 4670, "\u2581Medicin": 1, "PARK": 3473, "\u5927\u56fd": 100052, "mazsa": 1, "\u6c50": 50733, "\u2581kama": 4, "compass": 255, "haften": 4, "\u2581kami": 14, "AutoCAD": 27936, "nzu": 382, "\u5e02\u753a\u6751": 907, "tanken": 6, "istiche": 21, "PART": 8132, "exercise": 1177, "PSON": 1552, "speel": 18, "tanker": 105, "\u8ffd": 1279719, "omogene": 375, "319": 17589, "318": 25660, "GROUP": 3657, "Sesungguhnya": 5, "313": 14460, "312": 24527, "311": 18087, "310": 51023, "317": 14558, "316": 26246, "315": 31609, "314": 14654, "touch": 20930, "31)": 6879, "31/": 833, "31.": 19633, "oftheday": 263, "<0xAC>": 81318, "\u2581driver": 18, "allif": 74, "31%": 15076, "\u62a4": 1469780, "\u5feb\u611f": 46706, "strali": 51, "ncontrar": 32, "\u2581Chrom": 76, "\u2581Chron": 3, "\u2581Bangladesh": 6, "INSTRU": 193, "\u7a7a\u6e2f": 20347, "idla": 6, "pparel": 334, "447": 9211, "ZOL": 860, "ZON": 730, "ZOO": 1785, "raust": 46, "ZOR": 397, "\u2581territorial": 3, "ELSE": 338, "idest": 55, "1,65": 1565, "Neil": 4397, "iphonex": 1, "Nein": 94, "1,67": 1129, "\u6237\u5916": 211463, "Dokument": 17, "FTE": 222, "drijf": 11, "reball": 11, "44.": 28981, "beli": 1125, "belo": 160, "beln": 23, "bell": 5003, "ometer": 1098, "bela": 138, "bele": 293, "DEMI": 225, "stoma": 852, "\u258120:45": 27, "bels": 214, "wedstrijd": 1, "Proof": 787, "desktop": 570, "\u5b9f": 5572, "belt": 945, "Carr": 3387, "redstav": 2, "\u2581disease": 10, "Cart": 4632, "topeni": 85, "Carl": 10550, "'000": 136, "Heroes": 1809, "Cara": 3348, "\u5927\u578b": 993121, "\u6bbf": 628711, "Care": 7356, "\u54c1": 3651050, "3;": 15493, "9:32": 220, "iddi": 428, "\u2581nisi": 14, "9:33": 219, "\u674c": 1949, "idda": 61, "Kaunas": 61, "awake": 473, "berdo": 18, "\u2581juna": 2, "Hiroshima": 106, "3>": 1203, "osat": 139, "osas": 146, "\u2581rectifi": 1, "budget": 470, "Symphon": 1779, "\u59f3": 87, "\u2581klaus": 1, "pressed": 750, "32": 350560, "Marker": 778, "khong": 52, "osan": 1257, "Market": 10479, "pressen": 28, "\u5580": 150329, "ducator": 194, "\u2581unit": 87, "\u5927\u5730": 182598, "binding": 860, "eve": 2431, "\u8d42": 43482, "niczym": 2, "accura": 582, "\u5019": 465021, "\u2581revolution": 4, "DOST": 47, "\u2581Mons": 10, "\u2581Yeni": 64, "\u6700\u60aa": 81, "3)": 82012, "2740": 1562, "2743": 677, "2742": 1374, "2745": 1077, "2744": 807, "2747": 968, "2746": 749, "2749": 850, "2748": 779, "gelijk": 5, "\u2581homo": 6, "Tidak": 7, "\u76c2": 27482, "50+": 3146, "\u2581Casino": 18, "\u5468\u56f2": 110, "Eclipse": 3618, "\u5b89\u6392": 747369, "\u5468\u56f4": 479560, "ladh": 79, "\u2581cloth": 8, "kring": 57, "nickname": 118, "iruo": 28, "\u2581any": 112, "kni": 75, "beles": 70, "\u2581anu": 9, "\u2581Absolut": 11, "kompetenz": 6, "irua": 88, "\u2581ann": 10, "\u2581ano": 20, "utunga": 5, "\u2581ani": 30, "pomni": 2, "\u2581ank": 1, "\u2581and": 1048, "\u2581ang": 56, "\u2581ana": 43, "\u5054": 27, "Component": 2238, "salva": 337, "\u623f\u95f4": 319842, "\u2581Teacher": 26, "lamaya": 1, "kerfi": 1, "\u5e9b": 68, "\u6211\u4eec": 6134544, "\u770b\u597d": 121848, "vedenie": 2, "eerd": 73, "ADIDAS": 495, "\u5e45\u5ea6": 202883, "eers": 83, "eert": 304, "Brands": 765, "\u5927\u548c": 54088, "ierenden": 8, "On": 27492, "Om": 2026, "Ol": 4035, "Ok": 1795, "Oj": 104, "Oh": 16273, "Og": 1438, "Of": 17408, "couple": 1622, "Od": 1851, "Oc": 869, "Ob": 4603, "hayan": 122, "hayat": 52, "Oz": 1241, "Ox": 3934, "Ow": 1127, "Ov": 582, "Ou": 1919, "tih": 95, "Or": 23555, "Oq": 34, "Op": 5375, "OO": 21668, "ON": 14006, "OM": 5531, "OL": 19395, "OK": 67479, "OJ": 1382, "OI": 6093, "OH": 28967, "OG": 6018, "OF": 29664, "OE": 6642, "OD": 6447, "OC": 11049, "OB": 6142, "OA": 18366, "sukan": 19, "lermo": 396, "sukar": 20, "OZ": 3023, "OY": 1211, "OX": 7468, "OW": 2676, "OV": 4490, "OU": 1372, "OT": 11234, "OS": 69667, "OR": 12720, "OQ": 1191, "OP": 14157, "<0xAD>": 91384, "\u2581haute": 1, "COUR": 431, "ntsorgung": 2, "negeri": 6, "\u2581Netti": 1, "chilari": 4, "bounce": 425, "\u2581Netto": 1, "HOME": 5359, "tisch": 136, "Franc": 11689, "proche": 54, "\u65b0\u5f00\u4f20\u5947\u79c1\u670d": 2, "Frank": 11975, "\u94ac": 1743, "\u6211\u4e5f": 428544, "Brabant": 119, "\u6c47\u62a5": 109724, "talian": 77, "\u2581invad": 5, "\u6d3d": 137750, "\u2581Marta": 28, "3959": 687, "\u2581Marte": 13, "ardal": 58, "\u2581Marti": 34, "3950": 2319, "\u4f9d\u5b58": 15834, "3955": 731, "\u2581Merch": 2, "urveillance": 288, "\u7457": 6002, "\u2581Marty": 46, "ardas": 33, "Hello": 11129, "2:41": 245, "80,00": 59, "\u2581sq": 32, "\u2581sp": 285, "\u2581sw": 40, "\u2581sv": 182, "\u2581su": 183, "\u2581st": 352, "\u2581sz": 91, "\u2581sy": 267, "amada": 291, "Ost": 1495, "amade": 71, "\u2581sc": 115, "\u7ef0": 63702, "\u2581sa": 430, "\u2581sf": 51, "\u2581se": 440, "\u7a7a\u6c14": 659646, "ytok": 213, "\u2581si": 241, "\u2581sh": 428, "\u6211\u4e0d": 353563, "\u4ea4\u6613\u6240": 175065, "\u2581sl": 88, "inte": 465, "\u2581digital": 30, "inta": 967, "Pandora": 960, "\u2581Operator": 15, "intl": 328, "into": 8029, "esiste": 25, "inti": 525, "intu": 272, "terroriste": 3, "RINO": 135, "RINI": 144, "terrorista": 27, "doskop": 7, "RING": 1408, "RINA": 346, "izaci": 173, "diyev": 16, "ATTRACTION": 34, "izace": 1, "bios": 1846, "\u5934": 7076649, "\u4eba\u624d\u7f51": 20243, "1%25": 58, "1%26": 71, "paradicsom": 2, "\u2581Balas": 1, "\u2581\u4e0b\u4e00\u7bc7": 26, "singer": 1163, "atlantic": 184, "\u6954": 57061, "kulang": 4, "\u72d9": 54223, "09.16": 348, "Resolution": 898, "09.12": 4883, "09.11": 814, "neiden": 12, "VILLE": 207, "\u5916\u4ea4": 177811, "VILLA": 634, "\u4e66": 9517083, "HIRO": 827, "utschen": 32, "Awesome": 499, "erica": 493, "majd": 6, "\u2581Launch": 46, "\u82f9": 15743, "\u2581Silber": 9, "immobilier": 9, "wuchs": 54, "\u2581Heimat": 2, "\u3011\u30103\u3011\u3010": 6, "influence": 1265, "\u6b19": 43, "\u2581Hunter": 91, "penyakit": 1, "kaikki": 8, "ocracia": 1, "\u6307\u5bfc": 2124853, "glais": 9, "njeri": 7, "ollow": 544, "Ambassad": 37, "revision": 328, "ustannus": 4, "\u5343": 2438280, "\u2581Sise": 5, "\u78ca": 126454, "\u2581intent": 2, "\u6307\u5b9a": 342516, "\u672a\u7d4c\u9a13\u8005": 2, "hinta": 33, "bianca": 49, "\u2581Sist": 3, "lnych": 4, "\u2581intend": 12, "bianco": 41, "\u6363": 107138, "algorithm": 1591, "produkt": 6, "\u6211\u4f1a": 242273, "terior": 713, "\u2581Etern": 28, "kashe": 8, "graben": 84, "\u6dfc": 26296, "\u5106": 4274, "\u2581nekon": 2, "letzt": 106, "zetes": 7, "toggle": 135, "DUAN": 145, "1990)": 10945, "\u2581Code": 516, "agues": 43, "\u2581CREA": 55, "\u2581cate": 1, "istic": 2720, "osmic": 728, "istif": 6, "Southeast": 695, "istik": 137, "istih": 2, "Kvart": 16, "istin": 409, "ffensive": 194, "istis": 50, "istit": 12, "\u2581Elektr": 6, "\u7840": 9680, "15:29": 78, "15:28": 140, "2174": 843, "Organ": 913, "15:23": 121, "15:22": 102, "15:21": 149, "15:20": 1519, "15:27": 91, "15:26": 115, "15:25": 430, "15:24": 119, "4967": 486, "\u84d3": 23031, "\u6307\u540d": 8734, "rzesi": 7, "recorder": 177, "7120": 752, "\u2581commiss": 2, "PREMIUM": 543, "alin": 772, "Render": 1865, "usband": 235, "cedBi": 2, "Skal": 169, "Rendez": 332, "kansa": 32, "\u2581humano": 1, "\u2581Tattoo": 16, "\u2581certificate": 5, "\u6f7a": 37718, "591": 8694, "590": 13802, "593": 7689, "592": 7906, "595": 7923, "594": 6979, "597": 10812, "596": 7301, "vides": 1074, "598": 9834, "\u680b": 327343, "&#;": 2, "enkul": 9, "videt": 32, "video": 6152, "\u2581French": 138, "videl": 17, "59)": 5132, "dynamics": 1419, "\u2581aspira": 1, "oquia": 45, "\u2581Blogger": 28, "3967": 505, "schaften": 73, "\u2581Mercury": 105, "Objekt": 8, "xxxxxxxxx": 50, "tunjuk": 1, "-05-2018": 1, "-05-2019": 12, "norod": 95, "-05-2017": 1, "gefahren": 1, "admi": 512, "Brasilia": 95, "\u7684\u89c6\u9891": 69751, "ibil": 44, "ibir": 533, "ibis": 128, "terve": 1, "krist": 29, "aftan": 31, "fifteen": 264, "\u5c31\u597d": 209566, "\u914d\u8d44": 10279, "\u2581Vyt": 6, "5579": 428, "5577": 748, "5575": 787, "Recycling": 158, "ould": 4368, "3263": 727, "5570": 1054, "557.": 1170, "derby": 184, "makes": 3208, "maker": 2694, "rive": 690, "\u5927\u5bb6": 2002073, "\u2581Vy": 39, "\u2581Vz": 31, "tmosfer": 5, "\u9508": 112920, "Tito": 395, "lader": 31, "retos": 61, "\u2581Vo": 236, "\u2581Vi": 1756, "\u2581Ve": 194, "\u2581Infantil": 4, "\u929d": 31335, "\u2581Va": 238, "\u2581extend": 6, "\u4ee5\u964d": 8727, "Solo": 3816, "confidence": 641, "idug": 21, "LARIN": 15, "\u2581VT": 195, "\u2581VU": 21, "Sold": 647, "\u2581VW": 37, "\u2581VP": 203, "\u5929\u4e0b": 724536, "\u7faf": 39737, "\u2581VS": 2492, "\u2581VM": 563, "\u2581VN": 75, "\u2581VO": 505, "NATO": 1579, "\u2581VI": 925, "\u2581VK": 165, "\u2581VE": 313, "NATA": 191, "\u2581VG": 121, "\u2581VA": 285, "\u2581VB": 543, "\u2581VC": 768, "projektet": 2, "0480": 749, "41.6": 4604, "41.5": 4779, "41.0": 1458, "048.": 633, "chod": 266, "\u2581Jeru": 5, "\u4fdd\u6709": 34508, "\u935c": 170, "customer": 1008, "Madam": 1406, "Madan": 99, "ancak": 81, "siksi": 1, "ancam": 86, "lubi": 34, "gefunden": 7, "\u2581infer": 1, "FORMA": 255, "\u7307": 1467, "roda": 289, "ireacht": 4, "langana": 14, "rode": 711, "rodd": 74, "ntuan": 46, "rody": 429, "\u25810,7": 1, "SIDE": 1789, "rods": 371, "rodu": 39, "\u6240\u6709\u8005": 42238, "tuurlijk": 3, "\u8327": 56121, "zlato": 6, "obyt": 50, "teckn": 4, "\u52b2": 495841, "2019/08/": 2, "comedy": 257, "\u2581???????????": 79, "amerika": 15, "9111": 1061, "\u57cd": 26, "\u2581empo": 2, "\u9886\u5bfc\u5c0f\u7ec4": 155268, "\u5927\u5b66": 5978017, "\u62d2": 192611, "911.": 709, "iminde": 1, "ceil": 104, "\u8001\u864e\u673a": 2322, "\u2581JUN": 130, "\u2581JUL": 41, "democracy": 257, "\u7c50": 549, "Results": 601, "One": 41260, "akala": 87, "\u2581provid": 2, "contatt": 9, "\u817b": 304324, "poate": 3, "houston": 36, "thigh": 316, "\u6839\u636e": 2953717, "insight": 852, "yega": 2, "\u2581Ehe": 5, "gigante": 422, "\u4eba\u58eb": 741253, "diaman": 26, "volto": 270, "lengkap": 1, "\u2581Ehr": 1, "volta": 302, "volte": 53, "\u2581Mazu": 10, "Emergency": 737, "usega": 7, "\u7136\u800c": 840072, "lamp": 1209, "ficie": 19, "\u4eae\u70b9": 140893, "\u2581blonde": 2, "\u2581produce": 14, "\u4e38": 325040, "\u2581Porn": 16, "OHAN": 84, "omemb": 1, "Sender": 205, "\u6548\u679c": 1264048, "staat": 101, "\u2581benefit": 13, "\u2581\u53d1\u5e03\u65f6\u95f4": 261, "Register": 1375, "17:47": 96, "ttling": 263, "17:44": 97, "Extensions": 476, "snake": 781, "17:41": 106, "1:59": 155, "1:56": 280, "\u9e58": 10836, "1:54": 365, "1:55": 310, "1:52": 345, "1:53": 240, "\u5b97\u6559": 443527, "1:51": 329, "TYC": 376, "\u2581Und": 116, "matig": 17, "\u95f5": 73997, "TYT": 122, "versjon": 5, "TYR": 276, "riktig": 2, "Anniversary": 1035, "\u2581Augustin": 8, "operator": 727, "books": 2482, "Cheng": 4870, "klar": 124, "entinel": 526, "\u709c": 40192, "umiem": 2, "ssing": 593, "\u2581champ": 1, "'": 462637, "renovati": 3, "ladan": 46, "\u792d": 19, "erului": 1, "\u65b0\u534e\u7f51": 39224, "ladas": 13, "Template": 767, "\u8f6d": 12537, "\u56f7": 1226, "\u5047": 1449079, "Teil": 211, "NOSTI": 22, "\u2581gegen": 1, "\u9924": 94, "\u2581rap": 292, "\u2581Parts": 14, "Angola": 195, "\u2581raw": 33, "\u6067": 499, "\u2581rau": 1, "\u2581raz": 7, "could": 8381, "\u2581ray": 20, "unnah": 27, "\u5371": 391980, "\u2581rac": 7, "\u2581Hash": 86, "unnar": 48, "krets": 9, "\u2581raj": 5, "\u2581Hase": 10, "\u2581rah": 2, "\u2581rai": 4, "\u2581Cloud": 258, "mittag": 6, "khand": 111, "FECT": 576, "\u2581Anten": 5, "\u2581Germany": 47, "letal": 211, "nverno": 13, "provado": 2, "khani": 71, "\u2581desert": 14, ".8.2014": 1, "\u2581Germani": 4, "KAPA": 39, "\u5997": 1552, "WORKS": 1299, "racetam": 37, "vember": 4, "kamra": 4, "\u8ca5": 3, "Eastern": 1610, "\u6b22\u8fce": 686273, "umowa": 1, "bygget": 2, "\u69b7": 15169, "ImageWidth": 3, "muha": 22, "dopad": 17, "8376": 738, "Kreis": 306, "heria": 360, "okomo": 72, "crobat": 2250, ":768": 517, "IZADO": 5, "ikiwa": 15, "\u2581Interne": 3, "\u89c6\u9891\u7f51\u7ad9": 20313, "\u2581Interna": 14, "\u2581Eiche": 2, "\u2581possible": 16, "ittaa": 10, "\u8d64": 516468, "\u66e9": 3827, "gaya": 158, "eyle": 33, "nnnn": 189, "agrave": 86, "\u8fd1\u6240": 604, "shtet": 4, "winst": 78, "lusi": 118, "twor": 565, "falsa": 4, "false": 2287, "\u6839\u62e0": 56, "\u6d0f": 108, "\u5927\u5927": 344861, "Secret": 5746, "\u2581Mej": 3, "uiven": 19, "atia": 414, "atic": 1757, "atie": 1434, "atif": 377, "ilmez": 3, "\u67a8": 1718, "atij": 1, "atik": 390, "\u5927\u591a": 296718, "atin": 428, "atio": 508, "\u5a5a\u793c": 188341, "\u2581MEDIA": 23, "ativ": 461, "hallgat": 3, "\u5de5\u827a\u54c1": 74875, "\u2581training": 11, "ampionat": 24, "3628": 660, "teria": 552, "terie": 69, "SLT": 894, "3620": 2108, "3623": 672, "3622": 781, "SLP": 625, "3624": 629, "3627": 633, "SLS": 2007, ";;;;": 687, "Moda": 411, "SLO": 785, "Mode": 7212, "SLK": 946, "1.000.000": 34, "SLE": 1839, "nerie": 93, "SLA": 2204, "SLC": 1665, "ampah": 6, "\u5927\u5956": 205282, "ampak": 14, "placement": 870, "Montpellier": 294, "\u2581Mex": 13, "breg": 50, "ampaa": 14, "bred": 333, "<0x80>": 86847, "\u9773": 31186, "6885": 464, "brez": 31, "brey": 230, "brew": 429, "brev": 40, "breu": 188, "bres": 112, "Danmark": 95, "\u2581producer": 8, "\u2581profession": 3, "\u258183.": 1177, "maksu": 3, "\u2581Mise": 8, "schmerz": 11, "\u258183,": 29, "frukt": 1, "\u2581Mes": 82, "endidik": 1, "tapu": 100, "\u771f\u4eba": 114468, "netsk": 50, "gjald": 5, "Update": 4179, "\u2581Met": 119, "tapa": 287, "\u2581Qar": 3, "tape": 1489, "tizia": 58, "tapi": 167, "riding": 306, "tizim": 1, "\u2581Mev": 6, "2464": 945, "2465": 1309, "2466": 786, "2467": 892, "2460": 3355, "\u540e\u7eed": 148076, "2462": 860, "2463": 903, "abbo": 112, "\u2581835": 104, "2468": 1449, "\u53e4\u4ee3": 564153, "Keep": 4225, "ations": 4077, "abbu": 24, "246.": 3179, "\u77dd": 67, "Rating": 574, "overnance": 820, "circulation": 322, "\u5bb6\u516c\u53f8": 84761, "anjung": 250, "\u4eae\u76f8": 115364, "stuff": 812, "\u2581Piano": 57, "\u4ef7": 2916095, "ohia": 38, "ohio": 78, "gerti": 5, "irg": 53, "\u87fd": 10, "Brent": 1225, "iPad": 49323, ".[15]": 165, "\u5a84": 407, "(7)": 39255, "prises": 141, "priser": 17, "frame": 2237, "yldig": 11, "priset": 90, "kuhu": 23, "\u2581tvo": 2, "\u2581Afg": 1, "prisen": 30, "ciklopedi": 1, "iect": 92, "\u2581Terror": 29, "\u5b66\u8005": 576983, "\u5b81\u6ce2": 247637, "nuclear": 1188, "parque": 23, "urmat": 5, "destino": 38, "appartamento": 15, "membrane": 1191, "18-8": 661, "\u5927\u5e08": 447124, "onces": 67, "\u2581minn": 4, "\u5a77\u5a77": 18619, "\u8fd1\u65e5": 271734, "timent": 114, "ffman": 653, "\u2581poroz": 1, "vindue": 4, "marts": 21, "\u2581fashion": 55, "\u9a6f": 64576, "tutup": 1, "\u4fdd\u62a4": 2496431, "\u5927\u5e45": 242460, "marto": 11, "\u4e2d\u56fd\u7684": 399282, "\u591a\u6837": 307689, "icus": 2736, "indice": 129, "indica": 767, "\u2581EMP": 131, "indici": 17, "nevra": 31, "\u2581EMI": 257, "\u2581Quell": 4, "\u591a\u69d8": 89, "vlucht": 2, "sokat": 1, "\u7a1a": 111599, "\u539f": 4125157, "\u2581\u5317\u4eac\u5feb": 200, "\u2581drink": 16, "drukke": 1, "kahu": 4, "\u5f2c": 15, "\u2581Brunn": 17, "genetic": 1557, "kahi": 41, "Aziz": 463, "feather": 431, "\u6fc0\u70c8": 221285, "ibilitet": 2, "\u5cc1": 5175, "4270": 1104, "4277": 595, "ycket": 19, "1,43": 1167, "\u5468\u5e74": 297203, "ablemente": 5, "\u2581Natt": 13, "\u770b\u5230": 1616098, "\u4fdd\u6301": 1232469, "\u6ce1": 1011126, "salen": 97, "ajele": 1, "Yong": 4126, "rby": 102, "aWR": 93, "lbum": 13, "rbt": 122, "\u786e": 512953, "OECD": 3808, "\u51f3": 58917, "rbi": 579, "hahaha": 198, "\u5f00\u6237\u5730\u5740": 52, "\u68ff": 47, "arote": 114, "EYA": 158, "ectie": 3, "Chess": 834, "\u9f17": 690, "\u5819": 1640, "uggs": 207, "\u2581kenk": 2, "\u6da0": 2471, "Judit": 758, "lduz": 7, "\u6307\u51fa": 481402, "Regular": 650, "\u2581Tourist": 20, "\u2581keng": 2, "\u6839": 1668029, "\u883c": 535, "\u80dc\u5229": 370647, "\u2581Park": 241, "\u2581Pari": 25, "\u7ec2": 3464, "thke": 101, "innost": 3, "\u2581Parc": 32, "\u2581Para": 302, "Decken": 14, "\u2581Parf": 1, "\u2581Pare": 19, "veel": 95, "\u2581Parr": 5, "2020/03/": 1, "\u2581Part": 2053, "karang": 18, "\u8ee2": 2370, "off": 19204, "karana": 43, "ofi": 868, "\u2581effective": 13, "phap": 74, "phan": 1582, "1.29": 8219, "phal": 536, "phai": 130, "ofu": 494, "1.23": 9217, "1.22": 10734, "1.21": 9439, "1.20": 15533, "1.27": 8945, "1.26": 8957, "1.25": 20552, "1.24": 8289, "\u7f81": 79782, "ZIONE": 56, "\u90aa": 430201, "otong": 440, "Rouge": 1193, "11/12": 1437, "11/11": 548, "11/10": 222, "(255,255,255,.": 3, "\u85ab": 1326, "adamente": 3, "APER": 622, "prednisone": 24, "\u8fd1\u671f": 283993, "\u2581Ying": 42, "crack": 1370, "\u66bb": 1495, "APEL": 78, "saksi": 4, "\u6839\u672c": 673679, "\u7248": 2440193, "crub": 208, "\u2581MENG": 11, "cruz": 259, "akula": 217, "\u8268": 626, "liebe": 112, "\u7572": 26319, "become": 3122, "liebt": 49, "\u2581prise": 1, "\u8fdb\u5c55": 247031, "\u2581Kolo": 13, "AIFA": 54, "clientes": 6, "REPORT": 316, "\u25812019-01-1": 1, "\u622a\u6b62": 282252, "niyo": 35, "\u2581Voor": 8, "\u2581Koll": 12, "\u2581Judi": 45, "\u2581Jude": 23, "februari": 2, "\u2581Juda": 15, "\u5927\u5c06": 49595, "passion": 876, "\u2581tradi": 3, "\u5927\u5c0f": 701704, "umple": 43, "\u2581trade": 23, "assage": 2, "\u96c6\u6210": 412544, "biology": 1690, "\u2581Ricc": 35, "\u2581Epic": 96, "fra": 3217, "aitu": 184, "aith": 146, "3.80": 6182, "\u2581maga": 3, "\u2581magn": 26, "\u2581Epis": 6, "\u2581magi": 6, "tracci": 6, "iwai": 220, "Sci": 6729, "Sch": 32561, "ERIN": 194, "Fi": 37875, "abadi": 83, "\u2581Rice": 49, "ttade": 18, "Replace": 4699, "\u2581Dora": 47, "langen": 219, "\u2581Dorf": 41, "iwas": 211, "\u2581Dorm": 41, "fri": 968, "\u2581Doro": 81, "swimming": 644, "\u6307\u5357": 231314, "Voyage": 1345, "\u5c02": 2202, "letters": 833, "\u5b9f\u9a13": 260, "\u2581Lung": 70, "\u2581Lund": 10, "\u6095": 300, "kasten": 91, "\u2581Luna": 164, "\u2581Dima": 15, "(50": 19398, "\u6c22": 234889, "mmigration": 299, "\u2581Weather": 48, "5,90": 512, "\u5134": 100, "kastet": 1, "hliad": 1, "eagai": 16, "ovaya": 68, "juuri": 4, "Bohu": 126, "izning": 1, "\u2581Empe": 5, "Healthcare": 718, "\u7ad9": 3658464, "\u2581recei": 7, "7080": 4410, "mprendedor": 1, "Myanmar": 201, "7087": 862, "7088": 544, "\u5feb": 2071245, "\u2581Audit": 23, "ntwikkel": 3, "problem": 5044, "708.": 813, "rgend": 16, "\u9686": 984168, "ystyczn": 1, "qqa": 22, "\u2581ascend": 3, "\u2581kawan": 6, "\u2581iom": 2, "NULL": 2916, "7,8": 4588, "7,9": 1785, "\u2581Oda": 3, "andsome": 937, "yasha": 54, "Converse": 922, "7,5": 1514, "\u2581Kole": 10, "details": 1042, "\u2581decor": 1, "\u8bb8": 1160240, "ezve": 5, "\u2581motion": 7, "zhor": 40, "zhou": 3895, "\u5c0f\u9ea6": 158058, "\u70ca": 11300, "\u2581Phone": 102, "\u2581Chang": 110, "ULU": 700, "\u8651": 275293, "veke": 2, "ULI": 653, "\u4e0a\u5e02\u516c\u53f8": 273101, "ULO": 158, "ULL": 282, "ULM": 80, "ULA": 967, "\u55dc": 109128, "ULE": 854, "\u6b63": 4264233, "\u2581porto": 3, "\u80ea": 9589, "\u591a\u6b21": 721649, "\u2581porte": 2, "\u2581ports": 3, "\u5927\u62b5": 15916, "kasser": 2, "\u2581EVO": 148, "\u2581EVA": 920, "magnetic": 2090, "Kensington": 2409, "txan": 3, "\u5916\u79d1": 269887, "\u2581Triple": 99, "\u2581gyn": 2, "\u2581gym": 2, "tworz": 1, "2,200": 2711, "\u2581gya": 1, "\u2581Juven": 14, "ldum": 33, "porno": 54, "BWU": 185, "opard": 382, "cutan": 55, "medida": 24, "farben": 3, "\u2581zijn": 1, "worte": 8, "bibel": 5, "antander": 1, "lezion": 2, "messenger": 414, "Brasileir": 83, "worth": 4577, "5,99": 404, "\u509c": 357, "systeem": 5, "Minder": 107, "9,30": 550, "rantsus": 2, "residencial": 5, "cmF": 48, "aurora": 111, "stue": 13, "\u73cd": 877665, "Taller": 51, "emies": 536, "CURRENT": 2188, "\u7684\u9ad8": 459453, "mato": 1185, "\u2581machine": 14, "cmV": 16, "Epidemi": 266, "nyug": 18, "rjun": 214, "cmd": 2891, "\u8b98": 38, "nyum": 11, "culation": 390, "QUES": 446, "QUER": 237, "QUET": 77, "(67)": 917, "mati": 909, "cms": 1407, "587": 11786, "tawan": 57, "\u2581CHU": 34, "mortalit": 212, "\u2581CHO": 157, "tawar": 62, "\u2581CHI": 133, "\u53a6\u95e8": 354931, "pande": 123, "\u2581CHF": 35, "intaj": 1, "usteet": 5, "panda": 1008, "machines": 414, "Salle": 638, "filtration": 367, "\u5927\u6218": 263901, "Mazda": 3173, "petro": 253, "exige": 15, "Sedan": 606, "petre": 79, "ostituzione": 7, "petra": 93, "tsira": 18, "taneet": 1, "\u591a\u540d": 189204, "Photograph": 1224, "PARIS": 559, "\u5927\u6279": 208644, "ngabe": 1, "7864": 309, "\u9ed4": 111397, "ACTIVE": 579, "589": 11596, "Mensaje": 3, "\u4e5f": 10481657, "7868": 317, "\u2581cabinet": 9, "\u2581formation": 4, "tihan": 14, ".195": 1821, ".191": 814, ".193": 439, "ottery": 117, "\u2581National": 303, "ngwa": 111, "stressed": 313, "\u7579": 4952, "\u2581adventure": 3, "tihar": 8, "\u4e0d\u9519": 452204, "\u5f15\u9000": 4670, "Absolute": 697, "\u2581Staat": 1, "0422": 608, "bru": 739, "\u6e0a": 248461, "\u6700\u540e": 1666991, "\u6b21\u7b2c": 13795, "0423": 691, "bro": 2523, "khari": 72, "koha": 21, "insta": 252, "4143": 479, "bri": 533, "bre": 1758, "4142": 721, "bra": 7012, "\u2581Titel": 1, "\u2581Jer": 50, "Acht": 44, "sweater": 235, "\u2581Soph": 18, "\u54a8\u8be2": 1265071, "20:35": 664, "20:36": 96, "20:37": 83, "20:30": 14756, "\u7a7f\u8d8a": 506281, "20:32": 92, "20:33": 109, "\u2581royal": 22, "=28": 132, "20:38": 204, "\u7b3c": 251297, "\u2581mine": 12, "\u4f9d\u6cd5": 968064, "-04-09": 1824, "\u2581RAP": 503, "Engage": 183, "\u2581RAV": 48, "evka": 20, "\u2581RAZ": 35, "-04-01": 3414, "-04-02": 2040, "\u8e4a": 25610, "-04-04": 798, "-04-05": 746, "-04-06": 872, "-04-07": 1842, "2');": 6, "\u2581iesp": 1, "\u2581mbi": 1, "\u2581RAD": 90, "=25": 185, "\u2581RAK": 12, "\u2581RAI": 22, "=26": 126, "\u6c5e": 44450, "1991": 224122, "1990": 254832, "1993": 296377, "1992": 291235, "1995": 320269, "1994": 300941, "1997": 371321, "ers": 24554, "1999": 420165, "1998": 412768, "ery": 3034, "maged": 387, "erd": 711, "ere": 6565, "era": 7364, "mager": 51, "ero": 5647, "EVER": 3634, "eri": 2708, "199.": 3908, "Aba": 634, "Abb": 2226, "\u2581Consult": 7, "Abd": 1110, "Sobre": 67, "Mandag": 16, "iveaway": 19, "enhed": 11, "Abo": 390, "\u2581schedul": 1, "Abr": 778, "verr": 128, "Abu": 1428, "repon": 61, "Aby": 312, "enhet": 24, "5057": 704, "nutz": 39, "vask": 12, "\u2581Yoga": 40, "nuts": 643, "\u2581netto": 1, "\u6ab2": 23, "kayama": 76, "\u7733": 44, "\u2581charm": 38, "\u2581Mazz": 11, "bares": 36, "barer": 17, "annach": 12, "chines": 200, "memorial": 144, "\u5ad2": 1626, "hona": 344, "baren": 44, "pungu": 4, "cagt": 3, "\u258197.": 1047, "\u2581gero": 1, "\u258197,": 37, "......": 2511861, "\u2581Mest": 24, "\u2581Mess": 14, "LION": 1107, "CALI": 950, "verb": 905, "CALL": 2057, "\u2581Mesi": 8, "\u2581978": 273, "\u2581975": 90, "hono": 448, "\u2581Mesa": 15, "\u2581970": 98, "ELLES": 103, "ELLER": 385, "migos": 51, "\u4f1a\u4e0d\u4f1a": 213042, "veri": 492, "alidades": 4, "innovative": 405, "\u76f4\u5f84": 235138, "\u4f1e": 213242, "honu": 23, "sposob": 2, "destra": 24, "\u2581intelligen": 6, "\u96d5": 725913, "\u4f18\u6e38": 3806, "\u2581Bayram": 1, "\u25811800-": 22, "production": 3277, "ownicz": 2, "\u4e0b\u843d": 40440, "minated": 742, "\u7638": 8212, "vern": 1063, "Stomatolog": 35, "\u7684\u98ce": 232998, "\u2581Fuk": 6, "\u2581Fun": 189, "\u2581Ful": 64, "\u2581Fum": 12, "Oman": 189, "\u2581Fug": 14, "gCo": 95, "\u2581Fue": 2, "Motion": 5270, "galur": 19, "Omar": 997, "Mexik": 15, "\u2581Fur": 111, "\u2581Fus": 91, "\u900f\u9732": 222397, "\u2581Fut": 12, "\u6966": 2961, "feeds": 329, "siaan": 20, "sjonen": 2, "tzak": 10, "espai": 36, "kirim": 6, "kirin": 74, "pileti": 3, "vaunu": 1, "ituba": 100, "Type": 18227, "starfi": 2, "madura": 79, "\u91a2": 1916, "computador": 4, "kovich": 252, "trainers": 40, "trafic": 6, "\u5267\u60c5": 297246, "daniel": 142, "trafik": 18, "sampai": 3, "henni": 19, "Transaction": 5186, "barrier": 654, "orchester": 142, "22:50": 576, "\u2581collection": 9, "disputes": 87, "inasi": 38, "muller": 203, "certified": 192, "inasa": 64, "spris": 34, "\u72e0": 160476, "\u5177\u4f53\u7684": 157692, "\u5867": 6, "sprit": 33, "\u2581Melbourne": 39, "raisin": 41, "sprie": 9, "sprid": 41, "professionell": 4, "\u51eb": 9939, "TSO": 402, "SLR": 2451, "\u2581editorial": 6, "Metallic": 757, "pratica": 4, "\u7812": 6118, "5544": 751, "another": 4084, "brahim": 796, "\u2581Project": 327, "\u2581Questi": 1, "\u2581ruch": 1, "TSK": 246, "dogo": 121, "\u2581Stabili": 14, "AVOR": 240, "rossii": 19, "nomia": 417, "ingeh": 5, "nomic": 4697, "ingen": 1111, "inger": 4124, "meester": 177, "\u8ba1\u7b97": 936816, "nomis": 56, "dogs": 895, "Pike": 590, "\u2581Years": 13, "SHIN": 3799, "rrian": 23, "\u6ec9": 1716, "\u6548\u5e94": 310475, "3.15": 10993, "IONE": 168, "SHIR": 150, "SHIP": 1538, "IONI": 227, "\u767e\u5ea6": 326291, "\u770b\u5230\u4e86": 178028, "guila": 102, "\u67e5\u770b": 334696, "\u663c\u98df": 58, "staja": 11, "\u2581abraz": 1, "venant": 347, "Relation": 2744, "historical": 604, "\u2581(138": 24, "meteorologi": 77, "algun": 54, "\u2581recommend": 13, "\u2581forum": 2, "\u2581gera": 2, "\u6f88": 90951, "\u767e\u5e74": 329396, "\u5fc3": 7611547, "\u550f": 17894, "\u2581(134": 20, "foder": 8, "\u2581Litera": 12, "TST": 1367, "contents": 426, "\u2581Ketten": 2, "9,6": 1642, "9,5": 986, "9,0": 1651, "EBU": 469, "\u5fa8": 27052, "hlut": 4, "\u2581(131": 26, "subjects": 384, "9,\"": 14, "TSP": 1631, "\u770b\u6cd5": 223527, "\u2581meteor": 14, "\u74ba": 419, "hlub": 4, "convenienc": 285, "abitur": 10, "Qq": 154, "\u97f3\u4e50": 1896158, "Qu": 8436, "\u2581Accessories": 7, "Qw": 555, "Qv": 200, "Qy": 60, "\u8fc8": 441131, "Button": 1779, "Qz": 52, "uchet": 110, "ustainability": 398, "Qc": 198, "Qb": 230, "Qg": 95, "\u2581hard": 119, "Qi": 6869, "Qh": 203, "Qk": 48, "Qj": 49, "Qm": 152, "Qo": 4818, "QQ": 251670, "QP": 3032, "QS": 20186, "QR": 6331, "QU": 2263, "QT": 9335, "QW": 5092, "QV": 1530, "QY": 2489, "QX": 6378, "QZ": 1588, "\u68cb\u724c": 42015, "QA": 17312, "HUL": 250, "QC": 11373, "QB": 8853, "QE": 12075, "QD": 14234, "QG": 1521, "QF": 12130, "QI": 2569, "QH": 2132, "QK": 542, "\u94fa": 870675, "QM": 5258, "QL": 4110, "QO": 462, "reserve": 692, "\u2581grip": 18, "\u5341\u4e8c": 1086329, "\u8eab\u4f53": 1077237, "\u5468\u672b": 185334, "\u2581Cole": 99, "\u5341\u4e94": 632624, "onkret": 11, "\u771f\u7684": 1034759, "lense": 250, "OWANI": 1, "HUT": 259, "\u5468\u671f": 378131, "\u53cd\u5e94": 853445, "\u767e\u59d3": 242585, "DCA": 1162, "\u6c30": 41697, "\u5176\u4ed6": 3510909, "33525": 68, "fdeling": 12, "DCT": 4165, "DCS": 6046, "DCP": 9512, "\u2581Dib": 27, "iraan": 7, "risiko": 1, "\u6307\u6807": 604111, "\u5c50": 7007, "joven": 38, "\u2581fiction": 2, "iraat": 13, "uchel": 102, "eme": 4582, "edida": 20, "runs": 674, "rahat": 13, "ema": 1867, "runt": 276, "\u771f\u76f8": 183149, "emo": 1230, "\u2581epic": 4, "emi": 1101, "HUY": 83, "emu": 401, "emp": 1474, "rung": 1186, "runi": 133, "rahan": 188, "runk": 1561, "ecze": 75, "emy": 3256, "\u5341\u4e00": 564966, "\u5341\u4e03": 529523, "Jackson": 6809, "\u6284": 239393, "\u5341\u4e07": 89452, "\u5341\u4e09": 513579, "marama": 63, "achana": 20, "AEA": 1327, "AEC": 1272, "AEB": 688, "\u2581Hide": 85, "AED": 2039, "AEG": 1052, "AEK": 1022, "AEL": 1235, "chenken": 16, "babak": 3, "\u5374\u662f": 270438, "\u2581Eel": 3, "pasteb": 4, "Listener": 511, "Reuni": 18, "cooperation": 712, "puert": 24, "\u604b": 835439, "\u79be": 126910, "\u97a1": 252, "Domingo": 513, "\u82c4": 14831, "\u2581(300": 27, "\u5176\u4e2d": 4321168, "taraji": 1, "papillo": 204, "fidan": 2, "shiis": 11, "huang": 3153, "magistral": 9, "\u60d8": 24348, "\u5341\u4e5d": 464938, "24%": 21567, "\u2581(30)": 1251, "kitchen": 566, "#57": 52, "\u2581Menn": 1, "umpang": 8, "\u2581Mend": 5, "\u2581Mene": 4, "BUTTON": 292, "\u2581Meng": 37, "Bring": 1054, "ronika": 15, "rikt": 9, "\u2581Meny": 1, "hempi": 2, "\u2581Menu": 52, "Dawn": 2195, "2',": 610, "tocin": 113, "faga": 32, "tona": 429, "tone": 3188, "tong": 3667, "bner": 494, "toni": 573, "\u5b89\u5353": 80554, "razbo": 2, "\u4fdd\u5b58": 562370, "tono": 443, "-11-02": 716, "-11-03": 686, "tons": 771, "-11-01": 1816, "-11-06": 605, "-11-07": 507, "-11-04": 749, "-11-05": 706, "jdiu": 3, "-11-08": 528, "-11-09": 501, "OiJ": 1, "tamist": 1, "stituto": 273, "stituti": 78, "\u2581Agua": 10, "\u63a5\u53e3": 673472, "\u672c": 10911148, "\u2581Agui": 5, "llington": 987, "\u2581UI": 988, "bisha": 40, "\u2581Nickel": 52, "bishe": 23, "bishi": 116, "bisho": 44, "ernhard": 650, "\u5bbf": 673529, "akarat": 14, "\u2581melod": 48, "\u8eab\u4e0a": 527792, "\u2581melon": 11, "\u574c": 1520, "\u2581Dik": 24, "\u2581Zako": 6, "GeForce": 19996, "\u2581Zaka": 1, "\u8bdf": 19746, "\u3011!\u3010": 23, "vagn": 91, "vago": 339, "gnw": 50, "6350": 1408, "gnu": 241, "4-460": 35, "gny": 175, "vaga": 109, "aruan": 35, "gna": 284, "\u2581decre": 1, "gne": 566, "klippe": 6, "gni": 1109, "gno": 668, "\u2581UT": 423, "\u8205": 100689, "ropeller": 206, "\u2581lleva": 1, "\u591a\u5143": 319233, "indeks": 1, "CVM": 648, "\u6019": 4138, "CVE": 903, "CVC": 2185, "setia": 43, "ielefeld": 133, "\u2581Fuc": 4, "\u2581Turist": 1, "kundige": 2, "\u2581dedica": 1, "anuar": 5, "isiones": 20, "\u8fdb\u6765": 128701, "\u5039": 22, "\u5176\u4f59": 200301, "\u2581adress": 2, "confection": 9, "\u8eab\u4efd": 505088, "\u2581ngay": 1, "Classroom": 336, "\u2581pomi": 1, "shindi": 3, "fuss": 267, "\u754b": 2559, "eft": 924, "\u7cd6\u679c\u6d3e\u5bf9": 22, "fuse": 956, "\u2581mister": 3, "\u5036": 656, "pisani": 4, "fuso": 54, "\u4fdd\u5b89": 122290, "\u4fdd\u5b88": 106229, "fush": 360, "mil": 2718, "1609": 4466, "1608": 4821, "AFA": 1422, "mio": 1475, "1601": 4948, "1600": 95733, "\u91cd\u91cf": 299885, "min": 72286, "1605": 5008, "atisfaction": 402, "\u53e4\u7740": 1241, "1606": 4864, "Dziennik": 3, "parku": 5, "client": 2314, "\u5b69\u5b50": 2167923, "dagar": 24, "\u2581jing": 58, "\u2581kepp": 1, "\u2581Um": 123, "elman": 893, "\u730e": 420272, "Lorenzo": 959, "thanks": 1046, "\u25810.8": 231, "gezel": 6, "heval": 299, "usque": 183, "gencia": 42, "llesi": 493, "dorff": 470, "yamaha": 55, "\u2581Kreat": 3, "hoge": 56, "echisch": 12, "UKAN": 31, "miz": 334, "anganyik": 41, "srapport": 6, "\u9655\u897f\u7701": 210545, "disini": 4, "artinique": 74, "Colour": 1351, "iOS": 65907, "\":30,\"": 1, "\u767e\u5bb6": 105786, "\u934e": 13, "tirile": 1, "orsorge": 3, "\u5b89\u500d": 29291, "\u2581Tour": 143, "sesong": 9, "designers": 200, "Wind": 12218, "\u25816.7": 1291, "\u25816.6": 1841, "\u25816.5": 3611, "\u25816.4": 3458, "\u25816.3": 4653, "\u25816.2": 5397, "\u25816.1": 5337, "\u25816.0": 435, "essoa": 82, "estimmungen": 1, "\u25816.9": 648, "\u25816.8": 979, "\u2581durch": 1, "\u2581rout": 81, "kijken": 8, "\u2581Lemm": 13, "\u2581Lemb": 5, "pdid": 11, "\u2581Startseite": 1, "PAIN": 798, "tenka": 19, "\u2581familia": 2, "hreb": 45, "tenke": 11, "\u2581familie": 2, "Italie": 59, "burua": 4, "\u5a13": 42285, "0-100": 19308, "Italia": 1326, "\u2581kirin": 1, "\u2581Yara": 3, "\u25811870": 1173, "EKT": 177, "\u2581Vasil": 4, "\u8a33": 1034, "\u5d3d": 16823, "\u2581Michael": 1268, "ferli": 33, "dolce": 127, "imise": 17, "Sortiment": 3, "\u591a\u5206": 19470, "\u94cc": 7382, "azra": 42, "issimi": 102, "\u6700\u65b0\u4f20\u5947": 42, "issimo": 209, "issima": 467, "\u2581cafe": 26, "\u8d5d": 8053, "\u2581regi": 16, "\u2581dru": 7, "eerlijk": 1, "\u2581dry": 71, "powszechn": 1, "\u2581rega": 2, "opis": 225, "\u2581rege": 4, "opin": 405, "\u4ef0": 250091, "\u2581dre": 6, "Outra": 97, "\u97f6": 96035, "Consulta": 89, "opie": 75, "?#3": 37, "\u2581dro": 1, "\u4eba\u6c11\u5e01": 646143, "ESTE": 490, "\u6402": 26558, "\u7684\u5973\u4eba": 206759, "ESTA": 620, "ESTO": 646, "fancybox": 2, "rendering": 202, "yaluron": 323, "scrito": 6, "14,00": 122, "\u6700\u521d": 277109, "allorca": 178, "\u4f9b\u7535": 174744, "\u2581Berry": 90, "unoa": 16, "\u5b89\u5168": 2838980, "iasat": 9, "\u6934": 6143, "lugha": 4, "\u2581Berri": 4, "Blast": 2393, "\u2581bha": 1, "\u8fd1\u5e74": 80325, "stranden": 3, "iranya": 28, "\u2581bho": 1, "ROMA": 466, "8038": 1406, "\u2581bhu": 6, "freelancer": 65, "\u5954": 476406, "\u8054\u90a6": 189908, "gromad": 4, "2213": 1400, "2212": 1392, "2211": 2945, "2210": 3242, "2217": 1334, "2216": 1572, "2215": 1457, "2214": 1075, "2219": 1096, "2218": 1716, "\u2581kutsu": 1, "0648": 455, "isie": 70, "\u2581hyper": 62, "isia": 501, "isio": 1183, "isin": 2120, "221)": 1157, "geving": 1, "Cream": 2090, "request": 1363, "esportiv": 11, "akhand": 24, "\u2581tomat": 2, "icidio": 16, "\u2581Buss": 7, "tesi": 163, "albastr": 4, "\u9ea6": 903009, "\u2581Alap": 1, "tese": 103, "\u2581Alas": 15, "\u2581cervi": 2, "\u697c\u76d8": 116390, "tesc": 37, "\u2581Alam": 83, "\u2581Alan": 248, "test": 8787, ";43": 1218, "\u2581Kenne": 6, "\u2581Claudi": 59, "\u2581vegg": 1, "detox": 39, "aanka": 5, "\u2581Had": 84, "\u2581Kerk": 6, "\u5363": 2618, "\u2581Hag": 35, "fazi": 13, "\u2581Haa": 11, "\u2581Hab": 29, "\u2581Hac": 78, "\u2581Hal": 137, "\u2581Ham": 121, "\u2581Han": 264, "faza": 13, "\u2581Hai": 157, "\u2581Haj": 4, "\u2581Hak": 8, ".657": 375, "\u2581Hau": 31, ".655": 435, "\u2581Haw": 13, "\u2581Hap": 46, ".651": 606, "\u2581Has": 113, "\u2581Kerr": 68, "nxiet": 447, "Chicken": 1167, "sujet": 27, "\u2581MBA": 1300, "\u2581Haz": 42, ".658": 455, "\u2581brown": 23, "rgano": 71, "concept": 1735, "\u5bfe\u8c61\u5916": 5, "\u770b\u6765": 338046, "\u6106": 4123, "\u2581sanct": 2, "\u6307\u6458": 2675, "Republic": 4386, "\u2581roi": 1, "battle": 1825, "\u770b\u677f": 6093, "mandir": 12, "heller": 86, "\u2581Silk": 59, "plads": 1, "\u53ef\u4ee5\u901a\u8fc7": 221832, "descargar": 6, "plade": 1, "colombia": 11, "Intent": 673, "OCAR": 106, "gige": 40, "giga": 329, "iracle": 1674, "\u670d\u52a1": 6623893, "\u2581imperi": 2, "\u8146": 12558, "laksana": 8, "forskel": 3, "\u5efa\u7acb": 1776551, "gelijke": 1, "\u5b89\u5e02": 119659, "gub": 176, "gua": 1439, "gue": 2895, "gud": 203, "guk": 229, "-3000": 10635, "gui": 4195, "guh": 177, "guo": 3627, "gun": 6041, "gum": 661, "gul": 741, "gus": 1371, "Diabl": 1043, "\u4f9d\u65e7": 244666, "\u2581Kolm": 12, "turno": 589, "gut": 1223, "guy": 1384, "\u5f15\u9886": 213673, "\u2581Kolb": 5, "\u2581Kola": 5, "CMO": 2772, "alfa": 235, "2018/07/": 10, "kainen": 68, "\u2581not": 217, "\u2581nou": 3, "\u580b": 481, "\u2581now": 279, "CMC": 4787, "CMA": 8533, "\u2581nos": 19, "\u2581nom": 3, "\u2581non": 117, "43]": 129, "\u2581noh": 4, "\u2581noi": 9, "\u65d7\u8230\u5385": 12, "\u2581nog": 8, "CMS": 7941, "-12-30": 1267, "\u9999\u6e2f\u9a6c\u4f1a": 285, "CMP": 4629, "\u2581Indi": 51, "\u2581Voice": 180, "\u7f25": 19231, "Form": 8008, "barbie": 51, "\u258179-1": 12, "shares": 340, "\u6dae": 28983, "\u2581Ave": 78, "\u2581Ava": 41, "0614": 384, "\u2581Avo": 19, "\u2581Avi": 76, "Fort": 5079, "\u4e9a\u7f8e": 26121, "\u2581Militar": 3, "\u2581Indo": 14, "ambiri": 1, "leniyor": 1, "2:31": 194, "2:30": 24348, "MAGI": 1501, "2:32": 295, "2:35": 311, "2:34": 252, "2:37": 255, "English": 16848, "\u96c6\u5408": 140908, "2:38": 213, "tshw": 59, "\u591a\u5c11": 622491, "3:25": 290, "sending": 270, "3:27": 285, "3:26": 278, "3:21": 229, "\u771f\u7a7a": 126054, "3:23": 278, "43)": 7026, "\u74e8": 35, "TENA": 73, "43%": 18423, "TENG": 168, "3:28": 185, "\u2581Annon": 2, "vertikal": 1, "438": 8729, "439": 8880, "436": 9947, "437": 9050, "434": 7237, "435": 10934, "432": 11361, "433": 9862, "430": 28566, "431": 9530, "etler": 30, "\u2581women": 9, "\u2581premium": 5, "uzi": 1986, "extra": 2485, "uze": 740, "\u660a": 88749, "\u6700\u5c0f": 179199, "fbc": 19, "fbb": 114, "chlich": 18, "fbf": 23, "uzz": 2255, "fbd": 22, "\u2581Risk": 42, "\u2581Projects": 1, "etlen": 29, "\u2581ister": 1, "efana": 25, "nificativ": 1, "\u6307\u6570": 509292, "\u9528": 2015, "<<<": 1334, "\u4faf": 493528, "myndigheten": 1, "soko": 99, "-01-24": 479, "-01-27": 464, "-01-26": 497, "-01-21": 638, "-01-20": 745, "-01-23": 553, "-01-22": 582, "\u25812019,": 15, "soke": 65, "\u25812019.": 728, "-01-29": 533, "-01-28": 542, "NSR": 381, "\u5e7b\u60f3": 202084, "\u2581economic": 26, "00:50": 210, "Require": 362, "contri": 170, "\u5b81\u590f": 154694, "veinte": 8, "nguyen": 31, "orain": 254, "anuncia": 6, "\u645e": 7667, "tranh": 13, "ibi": 932, "tranj": 13, "kasan": 174, "\u2581What": 1662, "ibo": 1038, "iba": 1404, "\u2581osteo": 2, "trand": 822, "ibe": 233, "yiha": 157, "trany": 53, "\u2581blank": 17, "\u5173\u95ed": 221021, "\u6700\u9ad8\u5cf0": 24469, "trant": 146, "ibu": 633, "chiz": 38, "ERU": 212, "ERV": 237, "ERP": 42108, "ERS": 3093, "chir": 881, "gales": 107, "chip": 2849, "chiq": 22, "[2009": 1520, "chit": 634, "ERD": 477, "ERE": 705, "ERG": 734, "\u9615": 10548, "ERA": 1868, "chim": 529, "chib": 199, "chic": 1428, "\u5b89\u5fc3": 73567, "ERO": 1306, "ERI": 859, "ERJ": 624, "chie": 1229, "\u4f71": 18, "hhh": 2506, "discussion": 616, "kardi": 11, "lideri": 5, "\u62b2": 80, "\u5173\u952e": 554679, "\u8fdb\u6b65": 655382, "liini": 7, "1050": 19062, "1051": 3660, "selke": 4, "mieszan": 1, "5355": 621, "\u52d2": 903244, "\u5927\u6b63": 19920, "1054": 4095, "baitoru": 1, "posant": 10, "kuro": 302, "\u5b89\u5fbd": 390018, "kuri": 179, "\u2581traffic": 30, "lafu": 60, "1057": 3946, "kura": 654, "\u767e\u5408": 92747, "omassa": 7, "Radio": 8941, "Micro": 33450, "kurv": 5, "\u4eca\u5e74\u7684": 71828, "Ship": 2374, "kuru": 327, "kurs": 69, "elnou": 6, "\u2581Nd": 92, "stilt": 38, "\u8087": 122079, "Jay": 7199, "\u2581plus": 41, "murta": 1, "uszka": 7, "Jar": 3134, "\u2581plut": 3, "Jan": 16616, "ended": 634, "stile": 162, "Jam": 4333, "tablets": 123, "Jak": 3269, "\u2581plum": 12, "stilo": 58, "Jag": 1831, "enden": 585, "\u2581plug": 39, "mbi": 313, "\u2581Hohe": 10, "narodno": 10, "\u9500\u552e": 2099691, "\u7684\u90a3": 316699, "\u83b1": 959332, "\u96c6\u56e2": 1701090, "\u96c6\u56e3": 219, "ayabusa": 73, "\u6700\u5f3a": 144886, "Dolar": 18, "ejacul": 33, "varat": 31, "varas": 26, "Descrizione": 1, "\u2581Ni": 771, "deltager": 2, "\u75d5": 342140, "angona": 13, "varam": 56, "aeii": 2, "8,50": 429, "\u7962": 7136, "aliforni": 281, "\u2581NASA": 815, "dros": 170, "3242": 896, "3241": 677, "drop": 2395, "3247": 652, "3246": 654, "3245": 968, "3244": 615, "\u2581soku": 3, "droh": 23, "desde": 268, "324.": 1484, "drom": 483, "22.5": 14215, "\u9e78": 21, "\u6cbe": 157624, "drog": 46, "\u666e\u6bb5": 143, "eological": 1126, "Thro": 1137, "\u4e03": 2284516, "\u8709": 5177, "nikach": 5, "Museum": 5519, "yeah": 8156, "challenges": 452, "year": 7210, "Dragons": 676, "slett": 53, "9,0.6": 17, "\u2581capacit": 3, "\u60c5\u51b5\u4e0b": 328086, "\u2581zne": 1, "Norwegian": 341, "farge": 228, "\u591a\u5e74": 542305, "\u2581PAY": 14, "\u6211\u7231": 160889, "\u8fd4\u6e08": 10, "\u2581NE": 529, "kaaga": 1, "lasci": 29, "sikkerhed": 1, "586.": 1353, "\u65f6\u65f6\u5f69": 1006, "rescent": 640, "sanatori": 3, "sikkerhet": 2, "\u7ae0": 3603768, "\u2581venc": 2, "andira": 17, "\u6700\u5feb": 119638, "transition": 855, "teist": 25, "\u2581Dead": 218, "Erik": 2146, "\u2581Deal": 16, "Erinnerung": 33, "Eric": 9939, "\u8fd4": 464735, "\u2581count": 65, "romania": 58, "tama": 803, "ELOR": 85, "ff": 9513, "nepu": 18, "\u2581NH": 521, "ImageUrl": 1, "\u786c\u4ef6": 335818, "\u2581Karat": 12, "fabrik": 254, "\u2581Karak": 1, "\u2581Karam": 4, "Pure": 4150, "fi": 9440, "luun": 29, "\u2581Karab": 3, "\u2581NK": 157, "Medicina": 407, "tomorrow": 1740, "hodes": 123, "\u2581Route": 111, "\u2581vent": 9, "\u2581Abdu": 4, "\u2581Juventus": 1, "\u2581NW": 93, "\u2581Abdi": 8, "\u5927\u6982": 446552, "wordpress": 457, "\u54b1\u4eec": 97723, "\u2581butter": 12, "2:14": 412, "\u61e0": 34, "\u2581obscur": 5, "baju": 68, "Device": 4310, "\u9052": 13408, "bajo": 121, "\u6a56": 86, "baja": 107, "baje": 21, "1:49": 335, "\u2581KIT": 46, "\u2581KIR": 33, "1:48": 245, "\u56e9": 63, "\u2581addict": 7, "piccol": 94, "Petro": 1786, "\u9ebb\u5c06": 56959, "\u7a7a\u519b": 178161, "ringsliv": 7, "documentation": 111, "\u6210\u4ea4": 303229, "Marcos": 440, "17:57": 68, "lokk": 16, "OUTSIDE": 67, "skaite": 11, "uangdong": 48, "1:40": 706, "\u8c31": 651030, "loka": 125, "oleum": 147, "loke": 55, "\u2581milk": 38, "-08-19": 819, "-08-18": 524, "\u591a\u5f69": 143919, "\u2581mill": 10, "\u25811960-": 351, "-08-12": 588, "-08-11": 542, "-08-10": 605, "-08-17": 553, "-08-16": 580, "\u8d2f": 573095, "-08-14": 514, "\u2581Orang": 3, "5-26": 1933, "Sistema": 95, "=40": 251, "\u7cba": 103, "Sistemi": 6, "\u2581friz": 2, "Package": 1725, "\u2581frit": 1, "\u2581fris": 2, "4049": 786, "\u2581frig": 1, "polaris": 70, "Mikha": 824, "urround": 1325, "(20)": 10793, "\u672a\u4f7f\u7528": 9721, "\u2581Charles": 402, "Module": 2021, "\u2581tout": 5, "aichean": 2, "\u2581Finland": 30, "cette": 182, "7:38": 172, "7:39": 121, "\u2581ASC": 251, "7:37": 174, "7:34": 153, "7:35": 442, "7:32": 174, "7:33": 165, "7:30": 6807, "7:31": 255, "Web": 82011, "3.70": 4612, "udung": 12, "3.74": 3319, "Wed": 1269, "\u524d\u4e09": 96482, "Wei": 12667, "3.79": 3374, "\u9a8f": 118460, "NDEZ": 44, "\u2581Schloss": 16, "30-40": 10990, "\u6700\u591a": 439043, "Disponible": 2, "HSC": 1007, "\u78a3": 15320, "Sharing": 675, "\u6700\u5927": 1153948, "HSD": 3642, "HSE": 3530, "\u2581desfa": 1, "49.00": 4955, "HSL": 523, "HSS": 1008, "HSP": 1344, "/2016)": 59, "HSV": 2103, "HST": 1050, "IMPORT": 181, "\u2581\u6781\u901f\u98de\u8247": 1, "\u2581Lob": 62, "\u258100:03:": 3, "\u2581Loc": 127, "\u2581Programme": 23, "\u5450": 89001, "minim": 89, "/2019/": 2, "\u2581Opportunit": 11, "\u9164": 1126, "TOWN": 2190, "\u2581tack": 4, "baita": 16, "\u2581ses": 6, "\u2581ser": 30, "\u2581sep": 5, "\u2581sev": 1, "\u2581seu": 3, "\u2581set": 498, "\u2581sek": 1, "rauda": 5, "\u2581sei": 14, "ambling": 286, "\u2581seo": 159, "\u2581sen": 16, "\u7ef7": 39583, "\u2581sel": 6, "\u2581sec": 59, "\u2581seb": 3, "\u2581seg": 11, "\u2581see": 119, "\u6700\u597d": 681871, "EME": 1310, "EMD": 922, "hoef": 74, "EMA": 3153, "\u6a84": 12601, "EMC": 8974, "burst": 827, "EGL": 382, "EMO": 4251, "\u2581kera": 2, "EMI": 7959, "hoek": 182, "EMU": 1850, "EMT": 1168, "bursa": 97, "EMP": 2460, "EMS": 20524, "\u2581restrict": 15, "\u2581keru": 2, "\u2581****": 516, "\u670b\u53cb": 1905732, "Mirza": 201, "duksjon": 1, "wechsel": 23, "tamaan": 2, "\u2581dulu": 3, "\u2581after": 72, "hemme": 24, "-99": 7450, "-98": 6443, "functies": 2, "-91": 4854, "-90": 20245, "\u4f9b\u7ed9": 172756, "-92": 6693, "-95": 8813, "-94": 5731, "\u7a4f": 814, "-96": 6662, "IXA": 157, "-9-": 5272, "\u2581Surg": 4, "-9.": 1805, "\u68d8": 131259, "hydrate": 1211, "\u2581Suri": 18, "\u5f3a\u5927\u7684": 332571, "ambiente": 38, "\u2581Bere": 29, "nili": 370, "nilo": 200, "nill": 34, "WINS": 1706, "nila": 152, "\u2581Bern": 52, "\u2581Beri": 3, "nile": 30, "Najlep": 1, "Malaysia": 1156, "Escape": 1808, "WING": 1492, "WIND": 2618, "hvi": 52, "Vorsitzende": 10, "amint": 104, "brati": 15, "zaraz": 10, "brata": 744, "hvg": 7, "Wizar": 59, "amina": 309, "exploit": 271, "ofobi": 12, "amine": 3700, "aming": 924, "amini": 360, "\u639f": 546, "amino": 5381, "idani": 40, "\u5bda": 34, "\u2581prema": 1, "avtale": 2, "\u59d1\u5a18": 325859, "\u2581marco": 4, "idang": 67, "idane": 108, "tropical": 442, "Dentist": 193, "\u2581Dona": 4, "Pair": 897, "\u2581PVC": 1927, "\u53bf": 7879193, "\u2581miser": 15, "\u2581Depart": 13, "biasa": 7, "elvis": 107, "\u2581alas": 4, "\u2581alat": 1, "\u2581Kamen": 31, "\u2581alak": 2, "\u2581alam": 1, "\u2581alan": 40, "elvin": 1136, "multum": 3, "moderno": 16, "\u83df": 10487, "\u5ce1": 294816, "Diret": 44, "daland": 27, "\u6807\u51c6\u5316": 254346, "\u8f6c": 4027245, "\u53ef\u9760": 362084, "\u804a\u5929": 235900, "8666": 1129, "8667": 394, "8668": 552, "orbert": 384, "\u2581Ferro": 25, "\u2581humanit": 4, "metrik": 37, "GNU": 4519, "metric": 2034, "eklis": 7, "Better": 3007, "GNC": 1478, "GNA": 432, "bevil": 2, "\u2581sur": 35, "\u5c65\u6b74": 96, "GNI": 260, "GNO": 192, "Israel": 1338, "develop": 1207, "\u2581Disa": 4, "\u2581publicit": 3, "\u2581branch": 10, "ntretenimiento": 5, "evati": 5, "\u2581toxic": 2, "Bloomberg": 1318, "lerinizde": 2, "\u2581Intelli": 71, "\u5b89\u5b9a": 79071, "\u258122:00": 294, "tayan": 49, "\u591a\u591a": 111490, "\u8859": 54618, "******": 2772, ".08.2018": 2, "8084": 414, "8085": 1369, "8086": 2076, "8087": 673, "8080": 2546, "8081": 692, "8082": 321, "8083": 321, "\u8413": 167, "vnem": 6, "8088": 1936, "\u897f\u5357": 428389, "utti": 572, "vner": 87, "808.": 745, "ubne": 18, "mergin": 28, "jesz": 2, "Puma": 847, "mbrac": 187, ".3344": 37, "Service": 16606, "\u603b\u4f53": 440849, "rappa": 181, "Servici": 32, "vian": 593, "\u7b0e": 17, "foot": 3114, "mbrar": 5, ".08.2012": 7, "baikan": 1, "death": 2372, "ToAll": 41, "LYS": 585, "Analyse": 223, "\u4fdd\u5065": 430973, "orkester": 4, "jmenov": 2, "adro": 124, "obat": 570, "LYN": 3288, "Analyst": 775, "36.00": 6240, "\u7684\u94b1": 160195, "ditu": 55, "ditt": 122, "dits": 2594, "ffler": 642, "ffles": 339, "kurse": 26, "vc": 5518, "dite": 216, "roli": 847, "\u2581\u2013": 4290, "\u2581Loe": 6, "dita": 147, "\u2581\u2014": 17507, "\u2581strel": 1, "\u2581\u2018": 6774, "\u86db": 131404, "diti": 70, "dith": 558, "\u2581Leipzig": 11, "fortuna": 28, "onnaissance": 334, "lipper": 1043, "\u59e5": 81758, "96-10": 722, "harap": 61, "-04": 7199, "239)": 544, "2396": 1128, "2397": 836, "2394": 760, "2395": 1493, "2392": 1218, "2393": 701, "2390": 2056, "2391": 713, "output": 1286, "luuk": 21, "14,99": 85, "2398": 1302, "2399": 1610, "bydl": 1, "verbal": 307, "byde": 141, "IoT": 3657, "\u7c8c": 13, "\u2581Lok": 28, "\u2581Vyso": 3, "tiyan": 31, "SFP": 2947, "\u5177\u5907": 585144, "\u2581kont": 1, "\u5927\u6c14": 276385, "fulla": 25, "\u2581reclam": 1, "Ion": 1351, "\u8233": 919, "\u553d": 22, "TCGGC": 1, "cyjne": 1, "\u2581christian": 8, "yenne": 1128, "aquil": 159, "ilhouette": 269, "aquin": 424, "\u9ccc": 61590, "tilaisuu": 1, "PLACE": 526, "\u2581Sofia": 57, "nisse": 43, "Leonardo": 1028, "\u6b24": 7319, "oilla": 7, "oille": 19, "\u2581Sain": 19, "\u2581Sail": 59, "ngozi": 2, "\u2581Said": 43, "dretts": 13, "\u4f9d\u636e": 557977, "backup": 681, "nehmen": 28, "Blouse": 38, "33.5": 5326, "\u8b83": 467, "33.3": 4815, "entleman": 845, "\u4eba\u4f53\u827a\u672f": 1859, "variable": 911, "\u5095": 2441, "ttached": 588, "intervention": 292, "xygen": 730, "tajate": 1, "\u5c22": 1122, "Pietro": 923, "\u2581NOT": 101, "\u2581NOV": 45, "\u2581NOW": 89, "\u4fdd\u517b": 238723, "\u2581NOS": 43, "Psicolog": 3, "\u2581NON": 59, "\u80b5": 39, "\u2581NOK": 261, "\u2581YAP": 8, "galim": 16, "\u5916\u7684": 181721, "ynol": 158, "ynon": 126, "mbling": 354, "\u2581Theo": 54, "Zertifikat": 34, "heheh": 46, "\u5154": 327531, "ynos": 2431, "proposal": 310, "\u2581Pric": 3, "embedded": 314, "Elektron": 50, "TAAA": 31, "\u6307\u6325": 526607, "\u8174": 10473, "\u591a\u5bb6": 298600, "salata": 20, "605": 10655, "604": 8164, "607": 11173, "606": 11523, "601": 12943, "600": 320477, "603": 9936, "602": 9743, "\u2581Maus": 18, "\u2581Maur": 46, "609": 7992, "608": 11348, "60%": 117997, "9.2008": 301, "\u2581Maul": 11, "\u9ac5": 32097, "\u2581???": 1028, "60.": 10371, "60)": 5312, "fusione": 18, "60*": 835, "Nivel": 56, "oulder": 524, "syarat": 1, "collo": 270, "\u2581Accommodation": 12, "Nivea": 96, "colli": 597, "minado": 10, "Disable": 1108, "vo": 4533, "infach": 12, "afilia": 12, "poor": 1878, "\u2581Suma": 24, "fermer": 7, "\u2581rig": 1, "\u4f9d\u6258": 263148, "1355": 4143, "pood": 8, "pokoje": 1, "olevan": 6, "EGEN": 72, "pool": 2698, "aroha": 6, "\u5b63": 1207789, "60]": 700, "\u667a\u80fd\u5316": 102535, "\u6211\u7701": 174201, "\u2581improve": 14, "\u6075": 4174, "Interviews": 57, "\u4ea8": 176039, "cores": 195, "overseas": 288, "robert": 228, "\u767e\u5206": 174565, "unyo": 136, "budzi": 2, "\u25811850": 812, "Unknown": 1052, "YUR": 61, "atibu": 1, "\u2581Cancer": 38, "\u2581*****": 290, "\u2581Cancel": 24, "pique": 36, "curricul": 91, "YUM": 256, "Take": 6814, "YUN": 1111, "\u25815-1": 214, "\u25815-0": 3, "\u2581Cina": 11, "religious": 279, "\u2581Cind": 52, "\u2581Cine": 987, "chain": 3278, "wmv": 1196, "\u5cb3": 412409, "\u85b9": 3319, "eksplo": 1, "\u63cd": 25997, "glesia": 91, "Deze": 69, "\u2581Vincent": 112, "ighty": 927, "lazim": 5, "augusti": 22, "(105)": 768, "\u62ab\u9732": 209790, "kondo": 19, "\u2581Dys": 33, "\u5bf9\u8bdd": 259523, "\u2581norm": 11, "konda": 67, "\u2581nord": 5, "455.": 1369, "pul": 876, "alene": 712, "atore": 273, "GUE": 2480, "atori": 1203, "GUI": 6888, "streets": 455, "GUO": 574, "GUN": 3939, "GUM": 243, "GUL": 251, "GUS": 385, "GUR": 178, "ators": 1437, "acant": 651, "GUT": 533, "4556": 635, "\u2581duch": 5, "4555": 1216, "4550": 2809, "4551": 715, "dissertation": 79, "karni": 65, "aserati": 343, "ast": 4809, "karna": 48, "hsil": 63, "\u75ae": 162340, "\u2581quali": 4, "rgba": 21, "/17": 5345, "/16": 5361, "/15": 6590, "/14": 3391, "/13": 2650, "/12": 10449, "/11": 4901, "/10": 18464, "eytin": 37, "/19": 4146, "/18": 4018, "excess": 412, "/1/": 971, "/1.": 912, "lire": 105, "Arbitra": 152, "\u2581Restaurant": 21, "\u2581pats": 1, "aware": 498, "\u8765": 3571, "rbita": 287, "Doll": 2519, "krigen": 2, "\u6ce8": 1321309, "inspired": 367, "\u2581Tamar": 60, "\u95ee": 3281073, "\u5927\u7247": 96945, "getElementById": 310, "\u2581Nation": 20, "\u2581pate": 1, "advertising": 491, "rbitr": 11, "\u6579": 1078, "\u2581path": 85, "smert": 18, "\u2581Wikipedia": 10, "\u2581pato": 1, "\u2581joy": 66, "puz": 64, "lopend": 40, "jro": 27, "skoda": 14, "\u2581jos": 13, "\u2581jot": 7, "\u2581jou": 2, "\u2581dopo": 7, "ferente": 21, "\u2581jol": 7, "\u2581job": 49, "\u2581joc": 12, "\u2581dopa": 2, "\u2581jog": 5, "\u2581Hammer": 51, "\u8d28": 3854331, "\u4e2a": 8834240, "\u57af": 481, "strutura": 3, "weihnacht": 2, "mpuni": 1, "\u2581Equi": 17, "pus": 4329, "Sz": 1057, "organiseer": 2, "\u2581divin": 8, "hannes": 42, "diol": 863, "---500": 323, "Sp": 12137, "Sw": 3108, "\u5c24\u5176\u662f": 551278, "Su": 19019, "St": 26914, "Sk": 2575, "Banking": 1168, "Si": 48627, "\u7684\u8bdd": 1331470, "So": 31495, "dios": 390, "Sc": 6489, "Katedr": 23, "Sa": 34642, "Sf": 243, "Se": 37875, "\u7c5e": 202, "SZ": 13225, "SY": 6651, "SX": 15811, "envolve": 2, "\u2581bird": 21, "SS": 32901, "SR": 21828, "SQ": 6675, "SP": 43610, "SW": 19942, "SV": 8556, "SU": 11390, "ST": 46851, "SK": 16192, "SJ": 6327, "SI": 11601, "SH": 32352, "SO": 30679, "SN": 15897, "SM": 33323, "SL": 20523, "SC": 22495, "SB": 19022, "SA": 21940, "SG": 11368, "SF": 20864, "\u5176\u5b9e": 1728063, "SD": 64950, "\u2581attract": 10, "IBI": 868, "2019-02-23": 1, "IBM": 50561, "IBO": 995, "IBA": 2948, "IBC": 1869, "IBE": 972, "\u2581Background": 50, "\u2581protected": 68, "afta": 68, "eaza": 48, "IBS": 1460, "Bitter": 585, "IBU": 565, "\u9c9e": 1340, "Harga": 21, "\u6c29": 10329, "lillah": 14, "\u25811080": 653, "Falt": 73, "fylk": 13, "posle": 4, "Fall": 6843, "argan": 119, "13:21": 165, "13:20": 951, "13:23": 105, "13:22": 167, "13:25": 389, "13:24": 118, "13:27": 92, "13:26": 119, "13:29": 92, "13:28": 90, "universidad": 4, "\u89d0": 13833, "oina": 115, "\u2581effect": 9, "\u5341\u5b57": 220344, "fyll": 37, "Lexus": 385, "indirizz": 1, "\u2581spel": 1, "meyin": 13, "2370": 2539, "\u90fd\u53ef\u4ee5": 379441, "\u2581Wage": 4, "VERSION": 385, "\u2581spes": 2, "Slots": 120, "0748": 376, "Such": 584, "\u2581Knochen": 3, "\u903b": 75992, "Publication": 1234, "\u9887": 401769, "\u2581Volum": 1, "SOM": 1322, "\u4ec0\u4e48": 3486710, "\u2581Mumbai": 3, "574.": 1249, "5740": 697, "embara": 11, "\u258123:5": 23, "uuna": 34, "Atlas": 2851, "leichte": 4, "\u258116.5": 200, "irinin": 6, "\u258116.0": 47, "\u2581shri": 8, "siini": 7, "\u25811,25": 12, "\u9987": 558, "GAN": 2112, "\u52ab": 308046, "STRAT": 271, "\u2581Collins": 19, "bywatel": 15, "embarg": 38, "miten": 4, "\u7167\u987e": 231118, "SOU": 522, "ORES": 185, "evening": 1011, "nehmer": 16, "\u2581TERR": 10, "\u5fc5\u9700": 101589, "mineku": 1, "\u258110.11": 193, "ninja": 180, "\u8d21\u732e": 646300, "\u258110.15": 245, "\u6162": 868346, "faire": 289, "elder": 709, "GAC": 1186, "\u74ef": 39394, "GAB": 2446, "\u2581specif": 5, "\u5723\u8bde": 103066, "sotsi": 15, "fairy": 745, "SAVE": 1270, "portier": 4, "\u2581universal": 11, "heavy": 1288, "KST": 467, "\u5e73\u53f0": 2116356, "thrombo": 310, "\u2581Gabo": 18, "vetov": 19, "\u7535\u7ade\u7ade\u731c": 5, "KSA": 257, "\u5a45": 61, ".444": 390, "KSI": 238, "KSH": 202, "\u51fd\u6570": 228432, "\u2581DDR": 690, "\u7684\u8fc7\u7a0b": 277887, "\u2581novel": 7, "abhair": 7, "offre": 538, "geber": 35, "AUTO": 4456, "offri": 44, "Town": 6978, "\u2581SEX": 54, "ilhas": 34, "\u7847": 2051, "\u5bc6": 1735955, "\u2581Maailma": 1, "\u2581SER": 78, "\u2581SEP": 75, "\u2581SEV": 51, "\u2581SET": 208, "\u2581SEK": 29, "Viim": 8, "\u2581SEO": 1065, "\u2581SEN": 53, "LIANG": 197, "\u2581SEL": 44, "\u2581SEC": 245, "kirjoittaja": 3, "\u2581SEA": 92, "kleber": 1, "\u2581SEG": 72, "\u2581International": 493, "1984)": 8072, "\u2581civil": 19, "\u62e0": 306, "Fantastic": 1090, "2,0.5": 49, "Bros": 1211, "Tai": 5748, "\u7b71": 44328, "0210": 1261, "american": 277, "Bron": 2952, "0215": 947, "0214": 546, "0217": 548, "0216": 1073, "0219": 834, "0218": 644, "\u96c6\u4e2d": 839837, "\u5546\u5e97\u8857": 2698, "50-100": 5885, "nhold": 196, "Tava": 270, "przez": 4, "visione": 24, "07.07": 3203, "\u8f93": 494788, "07.02": 2828, "mbolo": 52, "07.00": 3004, "07.01": 4657, "\\\":\\\"": 4, "\u258118.5": 187, "\u672c\u4f5c": 62941, "07.08": 2538, "07.09": 1992, "\u59bb\u5b50": 346964, "ugma": 21, "/01/20": 83, "\u2581Ted": 107, "raws": 36, "\u2581Teg": 10, "\u5544": 22769, "\u2581Teb": 3, "\u2581Tec": 54, "\u7ec9": 4647, "\u2581Tem": 34, "\u2581Ten": 255, "\u2581Teo": 26, "\u2581Teh": 8, "\u2581Iga": 3, "\u2581Tek": 46, "tivo": 487, "\u2581Isol": 3, "basan": 44, "rawa": 179, "\u2581Tep": 7, "dirdi": 10, "\u2581Ter": 132, "\u7256": 4727, "\u6a65": 576, "tive": 5042, "\u2581Tex": 50, "tiva": 750, "jquery": 273, "\u4f59\u4eba": 267717, "779)": 553, "gatik": 3, "\u2581Terme": 2, "acanze": 131, "\u2581Termo": 1, "\u7ecf\u6d4e\u53d1\u5c55": 375448, "shirts": 126, "883": 6258, "\u2581GO": 746, "881": 6341, "\u96c6\u4f53": 668436, "887": 6943, "886": 15200, "5/60": 6560, "884": 5203, "889": 7830, "888": 30392, "\u683d\u57f9": 224563, "Window": 5313, "trovic": 25, "88%": 14094, "88)": 6171, "88.": 24968, "gnition": 753, "\u2581noma": 4, "arki": 105, "\u5341\u5927": 259297, "\u4fa8": 295667, "Price": 5663, ".59": 4228, "arka": 169, "\u952f": 113183, ".56": 16024, "\u64ba": 1835, "Wochenende": 8, "\u2581GD": 449, "kyrka": 27, "melho": 60, ".52": 7901, "\u96c6\u4f1a": 36296, "erlijk": 2, "\u53ef\u89c1": 364925, "Bavar": 131, "Chief": 2018, "rinsip": 4, ".50": 4024, "Neces": 231, "Vatikan": 5, "\u2581paid": 8, "jaba": 6, "\u2581pain": 19, "\u2581jack": 35, "ginta": 48, "syal": 14, "\u2581paik": 1, "syah": 143, "astern": 446, "asteri": 165, "\u2581competent": 5, "\u6cd5": 6849448, "physics": 1781, "\u767e\u4e07": 224766, "1269": 3528, "1268": 4362, "878.": 753, "\u6765\u81ea": 1067917, "1263": 3186, "1262": 4191, "1261": 3165, "1260": 12323, "1267": 3625, "1266": 3612, "wehr": 417, "1264": 3718, "\u2581Centr": 21, "8789": 628, "8788": 570, "126.": 11105, "\u5516": 36, "\u2581domu": 1, "\u8fd9\u4e00\u70b9": 179426, "8787": 1294, "ikoy": 31, "\u60a3": 552896, "\u7684\u8eab": 160952, "aspect": 809, "ymy": 316, "ikos": 455, "kalem": 36, "ikot": 22, "French": 3135, "yma": 300, "\u7c30": 478, "\u5927\u7684": 650553, "einkommen": 4, "abend": 103, "abeng": 15, "ikon": 864, "ymi": 333, "\u2581Brandenburg": 9, "ymo": 402, "\u2581Clement": 30, "jabb": 34, "\u2581Integr": 61, "aniga": 21, "utting": 1147, "ljubljen": 1, "\u96f6\u552e": 309180, "\u9662\u58eb": 130756, "iramis": 292, "dinov": 157, "\u5fc3\u7684": 299420, "\u5fdd": 3755, "teful": 509, "\u2581Konsol": 1, "Polymer": 2493, "muntu": 8, "einheiten": 2, "konzert": 29, "casso": 53, "\u6b6a": 111489, "hypp": 2, "vingu": 70, "vingt": 79, "munta": 19, "hypo": 1584, "\u2581AQUA": 79, "bukur": 40, "\u66f7": 5441, "Merchandis": 242, "konzern": 4, "vesti": 53, "vinge": 15, "\u9501": 640052, "\u2581240": 918, "\u2581243": 410, "\u2581242": 492, "\u2581245": 493, "Franco": 2866, "\u2581247": 338, "\u2581246": 358, "\u2581249": 466, "\u2581248": 376, "kusten": 1, "France": 7259, "1)}": 47, "mantra": 111, "erinden": 9, "1){": 31, "Mama": 1869, "\u2581Mission": 339, "\u258124-": 94, "\u258124,": 275, "\u2581dynami": 2, "\u258124.": 13564, "\u2581Guid": 3, "regnancy": 86, "Mb": 4231, "\u2581Guin": 24, "\u2581Guil": 106, "\u771f\u662f": 362303, "\u5f71\u97f3\u5148\u950b": 58, "tolle": 73, "Compartilh": 1, "\u2581beneficia": 4, "\u7a7a\u4e2d": 223020, "1).": 836, "\u25815-": 1915, "\u25815,": 10650, "malayal": 1, "\u25815.": 341133, "\u258151": 7446, "\u258150": 20800, "\u258153": 4825, "\u258152": 5701, "\u258155": 5378, "\u258154": 4662, "1);": 5514, "\u258156": 4822, "\u258159": 3942, "\u258158": 4736, "spiration": 810, "\u25815:": 5830, "sprogram": 88, "league": 892, "liwat": 5, "\u5e78\u798f": 736710, "5/2009": 35, "\u2581Pila": 12, "Suport": 6, "\u5341\u5e74": 421804, "\u2581umet": 3, "liwan": 28, "poolse": 3, "\u4e0a\u6d77\u5e02": 381781, "\u2581Pill": 22, "\u89fe": 15, "(111)": 752, "\u942c": 68, "\u2581migrant": 1, "macar": 142, "proton": 210, "\u4e0d\u80fd": 2756534, "apprenti": 113, "\u2581Abstract": 59, "\u521a": 1457115, "\u7b9f": 24, "zizi": 147, "NJA": 58, "NJE": 78, "ziza": 232, "\u2581Celebra": 13, "wetenschappe": 3, "\u772c": 440, "enheten": 2, "enheter": 2, "kningar": 9, "Portal": 1730, "fferma": 2, "empty": 957, "ujourd": 20, "cetti": 187, "rannik": 3, "\u5728\u7ebf\u76f4\u64ad": 2713, "stuga": 6, "N": 668908, "Switch": 7576, "usantara": 65, "Donna": 1641, "strella": 150, "\u2581Rusi": 1, "\u2581minute": 7, "\u2581SharePoint": 70, "\u2581--------": 11523, "envers": 43, "10-12": 13405, "SAKI": 478, "juice": 640, "chieds": 19, "\u2581Igna": 19, "SAKA": 264, "\u6307\u793a": 197233, "ommode": 2, "\u506e": 4, "podnie": 2, "match": 2363, "\u54e8": 82212, "richtet": 5, "gongo": 62, "chiede": 17, "\u5b9f\u8df5": 150, "phore": 978, "lagan": 53, "Qatar": 217, "2639": 903, "2638": 1833, "\u5916\u6c47": 171200, "2635": 1156, "ALON": 603, "2637": 1034, "2636": 1049, "2631": 922, "2630": 2773, "2633": 1123, "2632": 1104, "9599": 462, "huwa": 197, "lagay": 2, "\u57e4": 4439, "\u2581Hakk": 11, "queue": 519, "mhuri": 6, "\u949a": 5740, "\u2581susu": 7, "grant": 829, "Luke": 2473, "Luka": 294, "iedere": 34, "karo": 69, "wwww": 205, "grana": 125, "RDEN": 37, "\u2581HTTP": 559, "\u8737": 12883, "grand": 2776, "\u2581susi": 3, "\u2581cinc": 1, "grann": 40, "zweck": 4, "\u2581cine": 2, "Faith": 1780, "\u2581Medium": 43, "\u654b": 7, "conque": 292, "\u2581mostra": 1, "erschw": 33, "ORAL": 300, "fatto": 31, "fatti": 37, "fatte": 22, "fatta": 50, "1.90": 7413, "mobi": 784, "\u2581impor": 1, "upati": 60, "5400": 25300, "antino": 492, "antine": 464, "harging": 301, "antina": 81, "\u5781": 4, "\u771f\u5b9f": 1091, "tnisk": 1, "\u7cd7": 9940, "bigay": 11, "uppdater": 3, "\u2581Pemb": 4, "odimo": 17, "\u630e": 11170, "ediye": 3, "\u7e9b": 2052, "\u2581Panch": 10, "Aristotel": 98, "\u2581kWh": 5, "PIK": 234, "PIL": 417, "PIM": 2123, "PIN": 7245, "PIO": 1970, "informal": 213, "PIA": 2210, "PIC": 6248, "PID": 7246, "PIE": 3047, "PIG": 419, "PIX": 1442, "dichte": 42, "iskiem": 1, "informar": 1, "PIP": 2085, "wiar": 2, "\u4ebb": 2508, "PIS": 1948, "PIT": 1276, "wiat": 79, "trigo": 308, "Giulia": 735, "ight": 4806, "alcald": 8, "desarrollo": 7, "trige": 57, "\u2581PERSON": 18, "Antigua": 150, "\u9edb": 105693, "\u2581dynamic": 44, "\u2581Intermedi": 7, "-30%": 5256, "-30-": 890, "-300": 23892, "keke": 959, "1.91": 4505, "\u2581sets": 19, "Gebraucht": 1, "athi": 537, "\u2581Stress": 33, "Cris": 2433, "lipa": 83, "ariato": 19, "bakwa": 1, "13,6": 738, "Dancing": 1427, "00000000": 1947, "Pattern": 1895, "Vrou": 18, "\u648c": 3162, "lipo": 594, "\u2581Molt": 32, "lips": 890, "\u2581Dragon": 244, "MWE": 44, "oulou": 254, "pnum": 30, "gracia": 36, "ouvert": 21, "Butterfly": 1613, "1531": 2996, "Scarlet": 1214, "\u5927\u7406": 145622, "\u67b6": 1533887, "asiswa": 1, "ampio": 10, "rhs": 96, "Protestant": 174, "\u2581gender": 5, "\u2581Prior": 17, "iyeen": 26, "\u2581orang": 2, "\u5457": 54808, "uczy": 1, "\u2581equi": 6, "\u2581memor": 8, "athy": 1051, "August": 5767, "ettlement": 693, "Taylor": 7598, "jective": 226, "lewat": 12, "\u2581(43)": 551, "Autres": 9, "\u2581centimet": 8, "ofeta": 10, "kwiat": 2, "\u2581Adress": 3, "\u2581Amazing": 94, "papun": 1, "\u7f8e\u5c11\u5973": 36588, "Bansa": 72, "Kostenlose": 2, "aburr": 17, "avalitsus": 1, "njem": 6, "6600": 11643, "6602": 509, "6603": 468, "\u25811959": 15295, "\u25811958": 24838, "6606": 467, "6608": 560, "\u25811954": 14126, "\u25811957": 14590, "\u25811956": 19438, "\u25811951": 14197, "\u25811950": 25796, "\u25811953": 15699, "\u25811952": 16932, "dopis": 4, "ravou": 1, "\u6da7": 69293, "Normal": 3286, "dukan": 25, "\u25814-5": 850, "atchback": 19, "Kitty": 4836, "\u25814-1": 280, "\u25814-2": 290, "\u25814-3": 244, "visar": 31, "visas": 182, "visat": 61, "\u7934": 30956, "Koch": 1755, "umatolog": 69, "nalista": 5, "ieteik": 3, "\u2581Bench": 14, "MEMB": 51, "MEMO": 1047, "scribir": 1, "TIDA": 87, "\u2581Rangi": 5, "TTLE": 1888, "ohansson": 495, "\u77eb": 151848, "limpia": 7, "\u2581Python": 287, "politic": 211, "weebly": 6, "\u9974": 9541, "\u2581sector": 9, "politik": 52, "similar": 1127, "Mavi": 1011, "ordered": 436, "monumental": 36, "\u4e0d\u826f": 376137, "\u840d": 170978, "\u2581Youtube": 66, "\u2581Uyg": 1, "\u2581Erre": 2, "Playstation": 523, "\u5398": 892433, "irtis": 13, "\u2581Erro": 6, "4690": 947, "hafa": 492, "4695": 682, "4694": 446, "hafi": 59, ";?#2": 4, "application": 5172, "larang": 7, "tlich": 68, "haft": 262, "department": 741, "cyfr": 3, "\u893f": 10, "Stanford": 1803, "\u5bf9\u8c61": 708263, "sessua": 2, "\u58ca": 1516, "\u8fd1\u4ee3": 209144, "\u957f\u65f6\u95f4": 241011, "ctubre": 4, "eluruh": 3, "BRRip": 2, "ngeng": 102, "andaan": 2, "\u2581articula": 8, "\u5409\u6797\u7701": 150756, "umaan": 20, "\u2581federal": 6, "\u2581motivation": 6, "\u7875": 68, "eville": 1069, "ARLO": 114, "ARLA": 90, "mentira": 12, "\u8bc6\u522b": 521000, "\",\"": 19908, "\u6211\u60f3": 610517, "0.27": 12141, "\u2581Knie": 1, "budov": 1, "Bengal": 292, "standort": 8, "FALL": 418, "\u2581Gazet": 1, "cognit": 177, "\u2581Chest": 16, "compact": 738, "\u2581Friends": 97, "Non": 8371, "\u770b\u7740": 401154, "Parent": 876, "lki": 51, "668": 12222, "\u2581Stella": 179, "umble": 1391, "\u54b3": 239111, "lky": 65, "Not": 8191, "bjar": 22, "Nov": 3090, "Now": 9963, "Nor": 7487, "\u2581hon": 9, "\u2581pitch": 9, "Bergamo": 192, "\u2581Adolescen": 3, "\u9146": 4142, "Celebrity": 407, "\u6bcd": 1393637, "qlar": 2, "\u2581Chlor": 35, "\u25812020.0": 2, "\u2581hom": 3, "\u4e0d\u8db3": 625340, "telling": 619, "\u7f5a": 576355, "ritas": 38, "omien": 7, "\u770b\u770b": 645262, "PHOTO": 3987, "akui": 42, "Katso": 24, "8.95": 2598, "akuz": 15, "\u4f7a": 3769, "8.99": 4252, "enforce": 112, "\u9875\u9762": 170591, "11111111": 1204, "juma": 44, "8230": 798, "\u25811-1": 540, "\u25811-0": 96, "\u25811-3": 693, "\u5341\u5206": 943006, "jumi": 49, "8239": 526, "yntax": 419, "popo": 333, "\u8111": 1465235, "\u2581Kits": 5, "\u4e0d\u8d77": 373816, "\u258108/2": 27, "jumu": 2, "\u9f9a": 81999, "lmost": 1864, "ducation": 98, "Grip": 794, "\u2581sung": 1, "\u2581sund": 11, "rate": 4739, "\u2581suna": 6, "\u2581sunn": 1, "Responsibilit": 447, "\u2581sunk": 2, "\u9ad8\u5c42": 237294, "\u2581sunt": 8, "Grid": 3355, "763-": 217, "\u2581Participa": 7, "KULA": 103, "\u2581Build": 127, "\u2581Energie": 7, "$(\".": 3, "\u2581emul": 22, "iablo": 144, "\u86d4": 10449, "\u8fdb\u7a0b": 257767, "multidisciplin": 13, "\u2581perturb": 1, "\u2581hust": 10, "patente": 30, "Back": 12088, "\u5367\u5ba4": 149966, "\u5177\u4f53": 996392, "aawo": 2, "\u670d\u52a1\u4e2d\u5fc3": 199424, "esichts": 9, "ierre": 89, "bangan": 16, "llande": 16, "\u2581prem": 2, "\u2581pren": 2, "clare": 873, "\u2581prec": 4, "manage": 1010, "clara": 126, "\u2581pred": 17, "097.": 529, "0971": 461, "4.75": 5505, "4.74": 2747, "0974": 184, "4.72": 3460, "0976": 307, "4.70": 3445, "0978": 513, "\u2581prep": 34, "\u2581pres": 13, "\u2581pret": 3, "4.79": 3263, "\u2581prev": 11, "mulk": 6, "\u2581million": 17, "venti": 188, "camera": 1762, "maschi": 19, "\u4e0a\u6da8": 367678, "\u82bd": 336265, "Steuerung": 10, "igue": 515, "\u8eab\u5206": 22578, "Markus": 827, "\u5728\u7ebf\u89c2\u770b": 7132, "tjes": 82, "\u60d1": 296816, "\u2581kli": 2, "\u2581erg": 1, "tttt": 47, "\u2581comple": 2, "\u2581klo": 3, "inizia": 5, "\u2581kle": 1, "resize": 147, "\u745e": 1019232, "\u2581Vina": 14, "meel": 42, "\u2581Vinc": 16, "\u2581Vine": 40, "\u2581Vind": 11, "66": 145423, ".500.000": 25, "\u2581Vini": 12, "\u2581Vino": 64, "\u2581Vinn": 1, "Generation": 2768, "boje": 7, "\u4e9a\u6e38": 1130, "VIII": 2300, "uzica": 7, "meet": 2005, "\u837c": 37830, "boji": 42, "2/2020": 7, "links": 801, "-2020": 13305, "-2021": 1292, "-2022": 1063, "chisi": 46, "linky": 113, "0399": 378, "chisl": 11, "\u258106/2": 48, "\u258106/1": 22, "\u6211\u6162": 1610, "apunta": 4, "\u2581match": 42, "\u949e": 96694, "ersial": 2, "raich": 26, "belum": 9, "legende": 17, "nart": 312, "\u2581\u5e7f\u4e1c": 36973, "Beast": 1901, "suunnittelu": 1, "\u2581structure": 6, "everly": 751, "nari": 486, "Reservation": 189, "ompetitor": 212, "\u2581Habi": 5, "filament": 436, "07]": 1379, "ivamente": 2, "peeling": 37, "ires": 470, "Mrs": 2748, "ronald": 39, "ireo": 135, "Roman": 4436, "dosis": 145, "Allow": 486, "\u2581GKF": 66, "imgs": 5, "MOST": 1135, "Narko": 8, "irea": 91, "tjej": 6, "Cabo": 592, "\u770b\u7684": 131688, "\u8469": 103886, "\u5728\u8fd9\u91cc": 486207, "\u2581UPDATE": 22, "Guard": 5004, "\u92f2": 12, "encyclopedia": 82, "\u5b89\u4fa1": 10, "\u533b\u5e08": 388709, "\u771f\u6b63": 700495, "esima": 26, "\u5f76": 27, "\u2581teen": 10, "9200": 7499, "\u2581leuc": 1, "influ": 269, "mbangan": 20, "amde": 85, "\u2581Chinese": 349, "1.81": 4500, "sortiment": 2, "including": 2238, "RAF": 844, "RAG": 472, "\u4e0d\u8fc7": 1766231, "\u5185\u5916": 301955, "RAC": 1652, "RAN": 2789, "RAO": 166, "RAL": 1225, "RAM": 26161, "RAJ": 143, "RAK": 261, "RAH": 614, "RAI": 468, "RAV": 5662, "RAW": 9952, "RAT": 706, "RAU": 217, "RAR": 3839, "RAS": 2600, "RAP": 6165, "maade": 3, "\u6e38": 2318202, "RAZ": 919, "RAY": 2016, "\u2581Comme": 41, "\u2581guid": 4, "\u591a\u4e86": 285605, "\u6700\u4f4e": 398806, "functional": 1245, "YYYY": 310, "\u2581Orti": 8, "\u258120.00": 25, "\u2581expos": 6, "\u2581Elasti": 9, "\u4f18\u8d28": 785834, "\u6962": 676, "ungeon": 96, "university": 1864, "egip": 7, "\u7cef": 122135, "gisti": 19, "\u6700\u4f73": 779511, "slide": 775, "havan": 236, "\u591a\u4eba": 284919, "\u8e78": 24, "\u65e2\u5b58": 1760, "|": 432233, "\u4e9a\u6d32": 468897, "OCI": 603, "2902": 815, "OCK": 2745, "Statistics": 1343, "2907": 664, "\u2581Uba": 2, "OCO": 2255, "2904": 638, "\u9709": 273859, "\u591a\u4e45": 123685, "souff": 44, "2908": 821, "OCE": 519, "\u2581Ubi": 69, "\u7684\u8001": 273528, "\u2581Ubu": 4, "rgos": 471, "flyt": 74, "OCR": 4474, "OCU": 377, "OCT": 2765, "special": 4149, "zione": 361, "STB": 646, "vgust": 1, "calip": 40, "\u592d": 45136, "olette": 451, "ricular": 762, "issimum": 188, "yalog": 3, "STN": 2095, "sieni": 13, "\u5916\u6302": 26340, "\u53c6": 808, "eggy": 833, "amatu": 17, "Hangzhou": 759, "amati": 53, "jili": 147, "illage": 160, "tulle": 50, "Drawing": 671, "jila": 56, "\u662f\u54ea": 69998, "\u2581oog": 1, "\u591a\u4e2a": 721032, "STU": 1436, "timet": 1401, "Owen": 2271, "banos": 35, "timer": 1062, "times": 4553, "\u53ef\u80fd": 2319120, "\u2581oop": 1, "\u2581oor": 3, "OUTH": 735, "svars": 5, "\u2581Canada": 69, "\u2581536": 131, "\u6700\u4e0a": 20815, "aporta": 55, "\u6012": 475053, "bitch": 854, "Frag": 624, "edinte": 11, "britani": 11, "reiniger": 1, "wrapper": 176, "\u6700\u4e2d": 3005, "lamang": 13, "\u6700\u4e3a": 295820, "2014/07/": 43, "harmon": 595, "iui": 1503, "\u2581halve": 7, "\u5d44": 7, "itamina": 22, "\u2581gust": 1, "\u2581Usta": 2, "\u8052": 4005, "tissu": 83, "atku": 5, "\u5341\u51e0": 230460, "rving": 1158, "\u5a5a\u59fb": 368515, "irigh": 13, "\u2581Homepage": 2, "\u258116,": 631, "\u258116-": 156, "\u258116.": 32035, "Flying": 2163, "servatorio": 176, "\u2581lill": 2, "\u2581164": 784, "\u2581165": 1230, "\u2581166": 549, "14.30": 944, "\u2581160": 1781, "\u2581161": 891, "\u2581162": 914, "\u2581Title": 172, "Interview": 576, "\u2581consider": 23, "\u2581168": 800, "\u2581169": 799, "\u258116:": 703, "\u6a21": 1316277, "9:57": 78, "9:54": 184, "9:55": 280, "9:52": 201, "9:53": 138, "9:50": 1025, "9:51": 234, "9:58": 144, "9:59": 126, "bladet": 54, "IGAN": 85, "\u6e38\u620f\u4e0b\u8f7d": 4314, "\u2581Przy": 5, "iatura": 13, "\u65b0\u4e00\u4ee3": 124145, "\u6753": 6344, "\u7684\u5408\u4f5c": 145485, "Registrar": 119, "regi": 280, "awalan": 4, "glim": 17, "\u2581Can": 1078, "stavit": 1, "dahulu": 6, "indu": 722, "cima": 125, "Para": 13710, "\u5927\u795e": 194538, "\u5341\u516b": 664241, "\u5341\u516d": 606055, "\u59ec": 188714, "inde": 1690, "jutan": 23, "inda": 1145, "indo": 1022, "indi": 1511, "$$$": 68, "3714": 557, "3717": 643, "IDAS": 436, "3711": 490, "3710": 1787, "portare": 27, "LIE": 945, "\u5189": 69187, "JUN": 2208, "3718": 681, "\u5927\u7ea6": 319612, "\u2581Http": 66, "\u5d16": 236272, "organisatie": 5, "oever": 165, "JUM": 437, "yfir": 6, "\u961c": 139033, "bestanden": 3, "\u4e0d\u89c1": 295123, "\u88c1\u5224": 110594, "JUS": 238, "4901": 396, "4900": 8499, "DEPO": 133, "4902": 559, "\u2581OVER": 117, "\u7430": 17509, "won": 5272, "490.": 1625, "idst": 93, "ayey": 18, "pisy": 11, "rilas": 13, "pisz": 18, "rilat": 47, "\u8981\u4ef6": 20034, "iolence": 305, "izoli": 6, "Fitness": 852, "\u5341\u56db": 475474, "\u2581Engels": 6, "\u2581233": 709, "\u2581Wald": 56, "\u88e3": 145, "\u4e0d\u8981": 1914249, "iemiec": 6, "3378": 611, "itru": 298, "\u2581tetra": 8, "vetenskap": 5, "\u2581Lle": 8, "3376": 809, "itra": 347, "\u2581Florida": 138, "itre": 254, "\u2581Wala": 10, "ireto": 42, "\u7a84": 236697, "Send": 1842, "menjadi": 6, "\u533b\u5b66": 1089130, "granat": 236, "\u2581note": 120, "krevet": 2, "\u6606\u660e": 231330, "professionel": 3, "\u2581Vig": 14, "\u2581Vid": 36, "\u2581Vie": 19, "kning": 9, "\u2581Vic": 69, "\u2581Via": 5512, "\u2581Vin": 83, "\u2581Vil": 41, "\u83aa": 9044, "\u2581Vik": 2, "\u2581Viv": 8, "\u2581Vit": 47, "\u2581Vir": 108, "\u2581Vis": 111, "\u2581Vip": 165, "\u50f5": 83522, "puder": 2, "tyro": 324, "\u61be": 174288, "\u2581Olivi": 83, "ken": 3883, "kem": 498, "kel": 1836, "kek": 65, "\u9ac4": 315, "kei": 766, "keh": 119, "ked": 552, "\u2581Olive": 70, "\u2581contagi": 1, "\u5173\u8054": 273110, "illah": 198, "stazi": 3, "key": 15833, "tsuya": 205, "\u2581matter": 10, "\u2581Cott": 10, "ket": 6231, "kes": 1826, "ker": 12297, "kep": 188, "datepicker": 1, "/][": 116, "OFFER": 551, "\u2581Says": 6, "\u2581Nigeria": 10, "noord": 45, "jil": 398, "\u81fe": 10229, "\u2581commission": 13, "\u2581later": 5, "\u8d8b": 268573, "\u4e8d": 1416, "elezo": 2, "\u5c82": 137385, "tulo": 49, "blive": 28, "eleze": 3, "\u739f": 9543, "ustused": 3, "ceny": 130, "\u770b\u7247": 6200, "cens": 651, "\u2581Pass": 160, "\u7f2c": 5870, "cent": 2620, "cenu": 16, "versal": 210, "ceno": 108, "\u2581erre": 4, "cena": 510, "vitenskap": 4, "cene": 2263, "\u7cc1": 2761, "controlled": 623, "\u2581hono": 5, "\u2581hone": 9, "controller": 712, "efika": 2, "illar": 258, "vidus": 42, "vidur": 2, "posible": 22, "\u2581Management": 103, "Sturm": 535, "Inclusive": 112, "05:55": 256, "vocato": 2004, "buze": 6, "vocati": 52, "\u5f15\u8d8a": 193, "OSTER": 368, "eniami": 44, "anov": 347, "enkel": 473, "ekin": 159, "ekim": 39, "\u5f15\u8d77": 975075, "surface": 2765, "sichtigung": 13, "Pretty": 1897, "ekit": 45, "ciando": 10, "\u91cd\u8981": 1579143, "\u2581Elektri": 3, "\u4e0d\u884c": 199151, "sqrt": 221, "\u2581Pasi": 8, "Bangkok": 687, "speaker": 963, "\u25812100": 312, "\u2581insurance": 9, "Types": 309, "malaya": 104, "\u2581fl": 53, "\u2581Hamil": 2, "\u2581fo": 41, "http": 4979, "\u2581fi": 73, "\u2581fj": 29, "\u25812025": 279, "\u2581fe": 35, "\u6d4b": 1594197, "buzz": 428, "\u2581fa": 98, "\u2581fb": 58, "sibile": 7, "estada": 7, "09:25": 444, "\u2581fx": 80, "\u2581fy": 21, "\u2581fu": 59, "teriorment": 3, "\u2581fw": 19, "\u2581fr": 50, "rifu": 41, "rift": 875, "\u91cd\u89c6": 454774, "09:20": 483, "faccia": 18, "logarit": 102, "rify": 538, "\u2581lift": 32, "csoda": 24, "riff": 1412, "\u604b\u6d3b": 97, "\u53f4": 30, "47": 132458, "great": 6500, "lternatif": 9, "rifi": 80, "\u2581life": 153, "\u5f81": 1972275, "hnal": 42, "daim": 107, "\u2581(198": 272, "discord": 67, "\u2581(196": 190, "\u2581(197": 155, "\u2581\u5927\u962a\u5e9c": 157, "\u2581(195": 170, "\u2581(192": 111, "\u2581(193": 162, "TIR": 4936, "TIS": 1431, "TIL": 455, "TIM": 3449, "TIN": 1096, "distans": 37, "TII": 357, "\u2581Friedens": 3, "\u2581(19)": 3167, "TID": 918, "\u6765\u8bf4": 1354486, "TIF": 1696, "TIG": 999, "TIA": 2772, "TIC": 2291, "Gaming": 1212, "\u2581Malay": 9, "4-": 25747, "\u2581Malam": 7, "balan": 146, "VUM": 83, "eriti": 78, "sztuk": 2, "erite": 100, "EQUITY": 40, "\u2581\u300c": 86272, "erita": 43, "\u2581\u300e": 71475, "\u2581infus": 2, "\u2581\u3010": 144694, "owymi": 1, "sterker": 9, "\u2581Area": 67, "\u2581Duk": 8, "rotz": 29, "rots": 99, "2013-2014": 5855, "rotu": 18, "roti": 94, "roth": 1497, "osisi": 12, "\u5572": 1750, "\u2581Lane": 103, "24.5": 11004, "rota": 403, "ramma": 55, "rote": 344, "ramme": 42, "\u4e4b\u6240\u4ee5": 196006, "ktore": 3, "dreh": 19, "\u6c8c": 72167, "\u2581Hati": 1, "batteri": 7, "rastre": 20, "\u2581\u5927\u962a\u5e02": 233, "rinzip": 14, "\u2581Dakota": 13, "\u5916\u6765": 110754, "\u2581icke": 4, "\"}},\"": 1, "inflammation": 143, "\u6fb6": 3532, "chave": 18, "Strand": 661, "\u2581performan": 1, "Uy": 242, "Ux": 496, "drej": 57, "Uz": 1135, "Ut": 1219, "\u538b\u7f29": 166064, "Official": 967, "Uq": 33, "Up": 18548, "puede": 94, "Ur": 4102, "Um": 2486, "Ul": 3398, "Un": 18205, "Uh": 1160, "Uk": 404, "Uj": 120, "Artes": 180, "Ud": 552, "Ug": 914, "Uf": 286, "\u955d": 4714, "\u6211\u662f": 716400, "Ub": 1650, "\u2581Format": 67, "UY": 812, "UX": 8617, "UZ": 1481, "UU": 4818, "UT": 7743, "UW": 3272, "UV": 27295, "UQ": 747, "UP": 18361, "US": 35167, "UR": 5620, "UM": 10181, "UL": 18185, "UO": 2240, "UN": 7306, "UI": 39774, "UH": 5578, "UK": 10148, "UJ": 599, "UE": 13213, "UD": 12203, "UG": 10595, "UF": 5004, "UA": 13983, "UC": 21346, "UB": 2832, "\u7684\u4f18\u52bf": 192324, "wszystko": 1, "\u5230\u8fbe": 367640, "ionario": 3, "533.": 1473, "8/18": 297, "5330": 975, "5333": 709, "5335": 613, "kripsi": 1, "8/10": 1368, "8/11": 391, "8/12": 383, "8/13": 266, "8/14": 175, "8/16": 628, "imini": 553, "gruppe": 215, "additional": 848, "\u65a7": 94692, "gruppa": 4, "deportivo": 22, "imine": 149, "teltu": 2, "gruppi": 2, "goria": 132, "\u90b5": 165397, "ASON": 1415, "oodporn": 4, "XXVII": 108, "\u2581Napol": 9, "bercrombie": 375, "gais": 53, "gair": 57, "kande": 56, "echter": 214, "astro": 2292, "\u6b21\u6570": 157759, "gain": 1167, "gail": 66, "\u5ad9": 119, "astre": 247, "highest": 550, "\u2581sites": 1, "astra": 716, "harina": 237, "itim": 44, "itin": 875, "\u6666": 50976, "itia": 411, "\u7feb": 803, "itie": 76, "\u2581tagli": 6, "tedra": 110, "itis": 6612, "hodov": 12, "\u2581\u4e07\u535a": 187, "marketplace": 128, "\u6d4f\u89c8\u5668": 110909, "ermietung": 3, "escola": 11, "\u8c0d": 87818, "kissen": 1, "beats": 794, "hmeri": 122, "\u5b98": 2266768, "education": 2552, "\u2581Musta": 7, "Function": 3778, "wegen": 49, "lakala": 14, "ingredients": 223, "99,\"": 1, "\u25810-1": 163, "\u25810-2": 58, "Million": 1075, "\u2581fet": 2, "\u2581Abdel": 10, "\u5631": 95935, "Teodo": 166, "\u2581fei": 8, "\u2581fen": 10, "\u2581fel": 21, "/30": 7641, "\u2581feb": 1, "\u2581fec": 5, "\u2581fea": 4, "\u2581fed": 13, "\u2581fee": 12, "\u2581Hawaii": 11, "\u2581Milan": 58, "ttare": 5, "\u2581refin": 6, "fois": 134, "\u2581Komen": 2, "foil": 455, "iatlon": 1, "Bukan": 12, "MARCH": 272, "grille": 23, "endaja": 2, "pferd": 6, "kHz": 9494, "\u2581condens": 8, "amp": 26504, "samsung": 287, "\u2581Experience": 28, "puhelin": 2, "\u7075": 2406911, "\u2581\u6295\u7a3f\u8005": 13, "\u6211\u6709": 155054, "ikasta": 4, "\u2581bush": 9, "\u2581Scient": 5, "promenade": 38, "Frontier": 2541, "Existen": 343, "emerintah": 1, "\u7c93": 8, "\u786e\u4fdd": 589409, "Bailey": 1706, "mpfen": 11, "\u2581\u4e5d": 87489, "schmuck": 7, "urzel": 23, "Lead": 4403, "aug": 376, "auf": 1005, "Honda": 3299, "ieke": 123, "ihii": 8, "aus": 1895, "\u2581Rail": 60, "swap": 814, "\u2581Rain": 340, "recycle": 366, "aux": 3528, "sorry": 2605, "\u573a": 4579229, "\u2581Raid": 92, "mentale": 80, "abri": 525, "voin": 47, "voil": 51, "ulevard": 36, "void": 5626, "internet": 4174, "\u4e2d\u4e1c": 99532, "\u5a31\u4e50\u5e73\u53f0": 2548, "voir": 328, "atrici": 106, "GAAAA": 3, "\u9966": 515, "\u2581Vision": 189, "haidh": 3, "vesnic": 1, "leiri": 10, "\u8cf3": 2, "ilingual": 307, "enhance": 560, "Inglese": 18, "\u2581Flughafen": 4, "herberg": 13, "\u8080": 175, "Figue": 310, "\u2581Cover": 79, "\u300b": 18261903, "\u4e2d\u4ecb": 214824, "38,1": 401, "9-00": 856, "gatos": 10, "posizione": 10, "obdi": 30, "2019/03/": 27, "putus": 20, "cultor": 28, "Wolve": 295, "\u62e0\u70b9": 81, "\u6d88\u9632": 373981, "\u4f59\u88d5": 776, "eheimnis": 44, "mbora": 29, "fjord": 187, "propri": 148, "\u2581tennis": 14, "\u5e76\u975e": 303668, "med": 3928, "meg": 523, "Terima": 1, "\u2581IX": 210, "mec": 957, "\u2581IZ": 57, "mem": 1058, "\u2581IT": 4789, "jamos": 25, "mei": 7567, "doden": 43, "\u2581IS": 1199, "\u2581IR": 326, "\u2581IM": 343, "\u2581IL": 239, "vinden": 10, "\u2581IN": 1676, "\u2581II": 1515, "\u2581RED": 198, "mes": 5710, "mer": 9852, "\u6559": 4369655, "\u2581ID": 2821, "\u2581IG": 427, "\u2581IF": 619, "Curry": 1047, "mex": 1000, "\u2581IC": 1551, "mez": 515, "grenze": 5, "enhausen": 110, "Versand": 18, "Extra": 3091, "amasis": 2, "\u2581It": 2939, "\u2581Iq": 2, "\u2581Ip": 215, "\u2581Is": 679, "\u2581Ir": 199, "\u2581Im": 313, "('/": 24, "\u2581In": 3774, ".08.2020": 2, "\u2581Ih": 128, "\u2581Ik": 29, "\u2581Id": 75, "\u2581Ig": 258, "\u2581If": 1860, "('#": 4, "\u6d88\u9664": 304296, "\u2581Ib": 71, "Lyon": 1396, "mobility": 279, "tatil": 2, "\u8bd6": 544, "6:22": 144, "tatis": 120, "Piano": 1897, "nferm": 45, "\u2581illum": 5, "\u2581Strand": 28, "liyat": 10, "TASI": 56, "\u5e3d\u5b50": 86553, "undet": 40, "lausn": 2, "Jenis": 49, "verletz": 3, "\u68b1": 195, "localStorage": 17, "bdsm": 99, "wiecie": 6, "Carbon": 3117, "liyan": 73, "haithe": 1, "\u5c3e": 1090388, "\u7559\u5b88": 61217, "apena": 101, "\u2581\u4f0a": 56985, "\u2581Dup": 16, "berlin": 468, "\u539f\u6807\u9898": 34798, "biotic": 726, "rooi": 27, "\u75e3": 34696, "rook": 3551, "room": 6768, "roon": 336, "roob": 19, "\u9e6a": 2120, "rood": 294, "roof": 536, "\u5ddd\u753a": 1864, "movies": 518, "omgang": 3, "roop": 368, "\u2581Sommar": 1, "root": 8256, "\u2581Viktori": 15, "ciall": 11, "Chrome": 6434, "helter": 590, "Wizard": 2840, "10,000": 11094, "\u5a92": 205576, "jisti": 4, "veranstaltung": 2, "kinson": 2064, "treck": 15, "\u62f0": 111, "colonia": 16, "trece": 91, "\u2581Male": 48, "\u7b2c\u4e00\u6b21": 686930, "\u7559\u5b66": 312500, "\u2581postal": 4, "trecu": 11, "Isra": 72, "\u2581Blade": 74, "\u67c4": 288752, "szczo": 7, "ovu": 33, "szcza": 37, "ovy": 500, "szcze": 24, "loyalty": 202, "szczy": 54, "ilgiler": 1, "ova": 2889, "ove": 1980, "ovi": 2023, "\u2581Haha": 28, "ovo": 1174, "besitz": 14, "blikke": 1, "dropp": 182, "\u2581Effe": 4, "caixa": 8, "third": 1574, "keuken": 4, "\u5de5\u5546\u8054": 50750, "KLMNOPQRSTUVWXYZ": 101, "cife": 79, "apsa": 47, "\u952b": 701, "apse": 288, "\u8fd8\u53ef\u4ee5": 399954, "ngjar": 1, "\u2581Malu": 3, "oni": 4815, "pdracht": 1, "\u80a1\u7968\u914d\u8d44": 1861, "\u2581Hyun": 4, "cota": 190, "10.1": 22909, "10.0": 7646, "10.3": 12120, "10.2": 16835, "10.5": 25685, "10.4": 12271, "\u98a7": 15589, "10.6": 16818, "personal": 2922, "10.8": 11999, "apiri": 44, "cres": 249, "ASTE": 378, "\u2581Bide": 3, "crew": 1177, "RELI": 111, "\u6db5": 656469, "\u8c34": 49312, "creo": 158, "\u2581admira": 2, "schmidt": 335, "cree": 406, "anim": 329, "combination": 920, "anii": 102, "Challenge": 2887, "anie": 535, "liert": 10, "ania": 1876, "\u258103:4": 38, "\u2581Personal": 99, "Agenda": 244, "\u2581discover": 5, "aniu": 52, "anir": 56, "tsiny": 11, "Seite": 66, "\u82eb": 4638, "untun": 23, "untuk": 19, "\u2581cinema": 7, "pagament": 3, "\u2581Salin": 7, "untur": 56, "\u57f9": 277357, "\u787c": 42630, "/02/2014": 4, "optie": 3, "\u6545\u610f": 158408, "aidi": 140, "\u2581Musik": 8, "atda": 2, "\u6d41\u7a0b": 437161, "/02/2016": 1, "\u2581Music": 410, "\u2581Over": 356, "aide": 663, "\u2581Arch": 143, "trading": 633, "arikat": 14, "\u2581Arca": 96, "mandu": 117, "mands": 252, "langue": 136, "\u2581permis": 2, "\u2581obst": 3, "mande": 238, "vres": 140, "manda": 324, "merchanti": 4, "mando": 375, "konum": 9, "phuong": 5, "foto": 417, "umun": 30, "Join": 1012, "\u2581Nishi": 9, "\u5b51": 9821, "Circuit": 1830, "umuz": 21, "umut": 54, "sefer": 7, "umus": 169, "umur": 274, "lazione": 1, "SSY": 363, "\u2581entrepreneur": 1, "\u4e0b\u7684": 623054, "SSU": 243, "SST": 1726, "SSV": 356, "SSP": 2254, "shush": 332, "SSR": 4522, "\u671d\u65e5": 15455, "SSL": 7499, "SSO": 689, "SSN": 1922, "SSI": 1216, "SSH": 3583, "SSK": 577, "Girlfriend": 433, "SSD": 11765, "SSG": 3599, "SSF": 490, "vijay": 57, "SSC": 3664, "SSB": 1043, "shki": 66, "\u258115000": 238, "\u2581Present": 46, "shka": 300, "\u960e": 98965, "agro": 222, "yamba": 33, "\u2581recur": 4, "agri": 232, "\u2581Houston": 21, "Nuestr": 78, "agra": 387, "3698": 724, "3699": 1282, "\u4e0b\u7740": 9621, "garri": 69, "potravin": 1, "3690": 1969, "3693": 572, "3694": 505, "3695": 711, "3696": 915, "\u2581Dale": 45, "\u2581theater": 3, "\u2581Dala": 8, "369.": 1522, "\u5236": 4756323, "\u2581Dall": 7, "\u2581Dali": 21, "yurdu": 2, "\u2581crypto": 1, "gerar": 33, "rivado": 5, "\u6570\u636e": 1803157, "lancar": 7, "usci": 203, "ference": 15213, "\u6bdb": 2032411, "gerak": 6, "geral": 10, "bezogene": 11, "usco": 550, "schirm": 46, "\u82e5\u8005": 789, "etter": 1037, "rodin": 90, "\u2581Religio": 8, "ettek": 23, "ettei": 10, "etten": 232, "ettem": 6, "ettel": 323, "beginn": 17, "\u2581Ott": 63, "\u2581precipita": 5, "\u8584": 843242, "\u2581Otr": 11, "nai": 921, "PING": 3446, "lauta": 9, "\u6e65": 27, "\u2581Ote": 3, "Animation": 1962, "\u2581Ota": 12, "\u2581Oto": 24, "Clone": 896, "nnovative": 523, "avion": 70, "TOSHIBA": 1449, "\u6f33": 120098, "\u4e2d\u5c0f\u5b66": 206174, "specialista": 8, "edonia": 276, "\u954f": 2428, "marin": 979, "reizi": 1, "uffalo": 180, "furan": 885, "marie": 457, "rodis": 21, "\u4ede": 11510, "ozdrav": 7, "vitel": 112, "Nyheder": 1, "\u5177": 2224181, "aglig": 12, "aglie": 28, "\u7efe": 10199, "entitat": 2, "sebi": 88, "\u2581sard": 1, "\u8702": 387953, "\u2581sarc": 7, "\u2581sara": 9, "Sabri": 51, "ograf": 76, "probe": 597, "\u2581sark": 2, "slaug": 69, "1744": 3392, "\u2581expand": 31, "tymi": 9, "\u77e5\u6075": 192, "\u4f9d": 1298815, "\u2581flee": 7, "usunu": 4, "\u70b9\u8bc4": 137939, "762": 8759, "\u2581fles": 13, "\u7fbd": 528473, "\u2581Pro": 1386, "nyer": 19, "Maldives": 534, "\u8d27\u5e01": 442993, "\u89c9": 1001815, "rjee": 411, "viter": 35, "Holstein": 253, "rjen": 55, "765": 8818, "nyel": 11, "\u2581Science": 167, "\u6781\u901f": 29364, "\u2581indi": 8, "9%84%": 11, "\u2581HAY": 21, "viktori": 1, "iero": 87, "troop": 567, "iety": 202, "<0x81>": 56107, "iets": 106, "skat": 321, "Partners": 4338, "\u2581indo": 9, "prett": 17, "testing": 966, "\u9c90": 1334, "yoshi": 899, "\u7b15": 3904, "emiconductor": 1265, "\u6577\u5730": 156, "-0000": 560, "-0001": 929, "[1])": 342, "[1].": 326, "[1],": 2854, "\u9521": 317610, "0522": 539, "0521": 431, "4286": 904, "0526": 555, "4284": 444, "0524": 460, "\u2581inde": 12, "4288": 1145, "0528": 823, "\u2581Page": 533, "\u622f": 994, "\u2581whi": 14, "\u2581who": 247, "kult": 15, "Billed": 15, "emplacement": 13, "bellissim": 10, "oma": 2699, "velge": 32, "]\u3010": 1886, "ome": 1794, "omi": 1741, "\u53d1\u51fa": 372774, "omo": 1183, "\u2581Admi": 6, "omu": 177, "\u2581Bean": 53, "\u2581Goth": 38, "ALING": 71, "\u59d4\u6258": 476632, "resistant": 683, "LatLng": 1, "ttenberg": 232, "\u8c06": 11882, "torium": 180, "\u9644\u8fd1\u7684": 141458, "/01/2014": 9, "torius": 304, "guzi": 68, "aktier": 2, "quino": 1931, "monat": 104, "roeder": 272, "quine": 205, "monas": 1233, "/01/2017": 9, "REGUL": 3, "(0);": 225, "\u2581Language": 61, "putz": 5, "oooooo": 235, "trze": 3, "\u2581Oni": 25, "puta": 299, "\u2581DIY": 1072, "puto": 198, "lovely": 777, "puti": 403, "puth": 27, "\u2581PROT": 8, "Flor": 4305, "\u2581away": 24, "\u96cd": 146311, "fonia": 114, "\u59d3": 527962, "Stuart": 2532, "\u6682\u505c": 111911, "\u825a": 442, "\u2581Screenshot": 12, "\u2581Craft": 131, "ANCHO": 59, "Field": 4747, "Process": 4977, "\u5546\u573a": 221162, "ugle": 96, "\u2581Ong": 17, "ugly": 335, "Proceso": 7, "\u2581One": 1524, "cane": 727, "cana": 938, "cano": 896, "emez": 26, "ktar": 68, "\u95e8\u6237": 86543, "cani": 415, "ktan": 49, "cant": 1800, "djur": 14, "2009,": 23185, "indent": 576, "irobi": 105, "tratti": 6, "functie": 2, "kadang": 1, "\u5546\u57ce": 190819, "cany": 492, "ujou": 114, "canE": 21, "kakel": 1, "ujos": 6, "\u6c60\u888b": 3475, "\u652b": 9744, "7200": 18524, "622.": 1136, "\u80ae": 18420, "5,50": 656, "\u2581narra": 9, "6220": 2077, "14:48": 110, "14:49": 108, "14:46": 92, "14:47": 85, "14:44": 89, "14:45": 1166, "14:42": 116, "14:43": 147, "14:40": 1291, "14:41": 87, "evolve": 268, "elli": 4739, "ellh": 192, "ello": 2573, "ella": 10732, "binin": 79, "Svc": 387, "elle": 5077, "16:44": 117, "16:45": 819, "16:40": 1459, "\u547c\u5438": 395198, "16:42": 105, "ereitschaft": 7, "ells": 513, "16:49": 66, "ellu": 165, "ellt": 669, "Amerik": 9, "tonos": 18, "presta": 12, "\u2581Yoshi": 61, "\u6570\u636e\u5e93": 279773, "\u2581oslo": 2, "tonom": 65, "\u74f6": 624489, "\u4ea7\u91cf": 338430, "programm": 192, "\u9363": 7, "mmasta": 1, "agoo": 150, "gondol": 60, "radzi": 1, "\u510f": 34, "zol": 606, "agoa": 51, "wanie": 16, "etting": 1842, "\u8497": 3014, "opsis": 2623, "waniu": 2, "agos": 185, "1775": 6902, "1774": 4406, "1777": 4887, "1776": 6957, "\u51a5": 189605, "5271": 383, "\u610f\u4e49": 987280, "1772": 4736, "\u60aa\u9b54": 986, "IROS": 385, "1779": 3624, "1778": 5326, "Boss": 14285, "\u2581offen": 1, "Bosh": 131, "IRON": 2605, "177.": 4602, "ellegrin": 258, "\u2581tage": 2, "imti": 12, "stanic": 44, "\u2581Sare": 18, "stanie": 16, "\u2581delete": 105, "Senegal": 133, "\u2581Svensk": 9, "nevn": 9, "nudo": 21, "7:22": 143, "Arr": 3693, "Art": 20163, "\u2581discussion": 2, "nudi": 63, "Michele": 1203, "UBS": 1701, "stram": 143, "ugol": 20, "Ara": 2547, "Arb": 1196, "Arc": 8763, "Ard": 1084, "Are": 6733, "Arg": 3723, "Ark": 1748, "tanian": 89, "deak": 15, "kizuna": 32, "kunni": 11, "Boon": 913, "deal": 1870, "strah": 10, "kunna": 8, "dead": 2121, "\u5546\u54c1": 977117, "\u2581Georgia": 39, "\u2581Duy": 3, "\u4f7f\u7528": 4486407, "cipit": 417, "\u5927\u6e80\u8db3": 5, "deau": 361, "\u2581Luxe": 16, "mniejsz": 2, "liesen": 7, "\u6027\u611f": 110081, "\u258171.": 1669, "\u258171,": 37, "\u2581713": 232, "\u4eb0": 83, "\u2581711": 459, "\u2581710": 235, "\u2581717": 185, "\u2581716": 148, "\u2581715": 186, "\u2581slov": 1, "\u2581719": 128, "\u2581718": 176, "Eritre": 78, "\u5b8c\u5168": 1438312, "concei": 144, "\u7ed0": 1513, "istische": 112, "\u544a\u8bc9\u8bb0\u8005": 123852, "\u5730\u4f4d": 619570, "\u7761": 927683, "\u4ff1\u4e50\u90e8": 451470, "\u2581Reserva": 4, "\u6846\u67b6": 223806, "luvul": 1, "\u2581Vanill": 5, "aireachd": 6, "\u5e7b": 947399, "hospital": 976, "UWE": 65, "\u2581beau": 5, "/87": 1028, "managers": 208, "ingut": 76, "Dallas": 1065, "Isabell": 1184, "selfie": 97, "\u2581pint": 4, "\u2581pins": 2, "down": 17766, "dowo": 42, "\u2581pink": 73, "\u5914": 24896, "\u718a\u672c\u770c": 95, "\u5c4b\u6839": 265, "\u5386\u7a0b": 167570, "\u2581Design": 196, "ception": 1608, "\u2581pina": 1, "initial": 878, "nsilvani": 2, "gensen": 106, "editor": 1269, "fraction": 936, "Ubuntu": 3064, "\u72b9": 514330, "Auteur": 31, "\u2581coron": 3, "creation": 658, "undamental": 1224, "thsh": 10, "\u2581Thanks": 101, "\u57cb": 334417, "analyse": 130, "paka": 63, "\u5409\u6797": 227037, "\u2581clothing": 5, "\u2581original": 29, "sagar": 68, "\u98d5": 5491, "pakt": 29, "\u7740\u529b": 168855, "clinica": 61, "(68)": 883, "analyst": 222, "gesprek": 2, "2019/09/": 3, "mesin": 164, "alnej": 1, "adisara": 1, "lead": 2710, "mesis": 624, "\u2581azon": 2, "oovit": 6, "\u2581Kuul": 1, "5;&#2": 56, "DIST": 404, "undang": 39, "petit": 402, "\u2581apla": 1, "ovjet": 1, "\u2581optim": 13, "DISC": 1505, "\u9994": 7933, "\u6270": 548493, "\u5730\u4e0a": 295859, "\u5730\u4e0b": 512933, "DISK": 1318, "addle": 952, "\u2581italian": 4, "\u2581Jane": 200, "\u5323": 51217, "\u2581Jana": 34, "niais": 2, "08]": 1398, "imens": 126, "\u2581recipro": 1, "imene": 92, "Tahun": 55, "imena": 107, "2509": 842, "2508": 901, "2507": 932, "2506": 903, "2505": 983, "imeno": 75, "2502": 1360, "2501": 1826, "2500": 103240, "Catha": 635, "089": 3628, "088": 2532, "Romantic": 737, "083": 2746, "082": 2889, "081": 1639, "080": 3392, "087": 3200, "\u2581forest": 19, "085": 1786, "084": 3430, "Chen": 18310, "08)": 9479, "!0)": 4, "08/": 769, "08.": 6017, "!0,": 3, "BANK": 1798, "\u83d8": 4359, "\u2581plugin": 12, "\u2581Ellen": 85, "dicha": 85, "richting": 9, "ignon": 630, "ignol": 279, "\u2581imagine": 8, "pseudo": 1629, "dicho": 201, "\u62ee": 23621, "dicht": 57, "anvende": 2, "\u2581Supermark": 4, "Hvordan": 11, "itseva": 2, "Torino": 288, "jarru": 3, "Tango": 1351, "Winning": 420, "sanna": 350, "qot": 22, "\u25811,00": 2, "sanno": 22, "7050": 1564, "qoq": 9, "nggit": 29, "\u5371\u673a": 364930, "father": 2761, "\u2581arch": 22, "landers": 382, "\u2581Akro": 24, "Bracelets": 12, "spezialis": 1, "\u5f3a": 3831410, "aspx": 389, "ride": 1640, "\u2581java": 1027, "dnych": 2, "\u2581Bain": 14, "Gestion": 74, "\u2581gaze": 7, "aneti": 29, "hlen": 471, "gplus": 19, "\u53bb\u4e16": 218593, "\u2581forex": 5, "cheapest": 31, "hleb": 146, "Keluarga": 5, "\u6674": 243794, "hler": 1030, "cgi": 432, "nyog": 4, "\u2581diminu": 1, "pikir": 1, "ndamentali": 4, "\u258110.30": 199, "fsson": 247, "\u70b8\u91d1\u82b1": 313, "Rela": 965, "targets": 175, "ssia": 256, "grunnlag": 1, "\u8bbe\u6709": 415925, "ssis": 203, "ssir": 91, "suspect": 267, "ottesdienst": 1, "avto": 17, "nyol": 24, "elvetica": 4, "aksama": 117, "processing": 1273, "DST": 1483, "DSS": 3265, "DSP": 16795, "rug": 976, "occo": 512, "DSL": 4276, "DSM": 3210, "DSK": 382, "occi": 729, "DSI": 747, "\u6d59": 170104, "DSG": 9493, "DSD": 1246, "DSC": 7925, "occa": 462, "DSA": 2368, "box": 12030, "boy": 11802, "1.4": 123400, "insan": 478, "papras": 1, "bop": 855, "boq": 226, "bor": 5644, "bos": 1353, "bot": 5387, "bou": 1382, "bov": 182, "bow": 4477, "mortis": 52, "\u2581Massa": 5, "boj": 186, "bok": 621, "bol": 1400, "\u53bb\u4e86": 318608, "bon": 2734, "boo": 819, "extrem": 154, "bob": 723, "bod": 542, "arilor": 3, "bog": 518, "departement": 8, "\u2581kika": 4, "\u9a6c\u6765\u897f\u4e9a": 130940, "PROCES": 557, "\u819b": 47264, "\u2581gener": 2, "Heritage": 1345, "\u2581pocket": 9, "\u9ad8\u7cbe\u5ea6": 41323, "nkami": 7, "\u7cdc": 49908, "\u60b1": 6342, "17,5": 599, "\u53d1\u5c04": 320159, "17,2": 1179, "17,3": 702, "presse": 71, "Stimul": 311, "\u5c0f\u7a0b\u5e8f": 8245, "\u543e": 337300, "AUA": 136, "\u63d0\u9192": 317123, "AUC": 6667, "AUB": 138, "\u2581Social": 145, "AUD": 4412, "AUG": 958, "AUF": 101, "adverti": 3, "AUL": 797, "agbaba": 2, "AUN": 103, "espero": 126, "AUR": 539, "THER": 1207, "AUT": 564, "euille": 135, "espere": 40, "AUX": 7583, "amboo": 123, "espera": 88, "\u2581Prozess": 1, "ussicht": 5, "\u5811": 13750, "drage": 19, "\u53d1\u5c55": 6210239, "draga": 12, "\u966a": 514043, "Hepat": 656, "kombination": 1, "\u6170": 289196, "drags": 17, "\u7b2c\u4e8c\u5b63": 61047, "sigaret": 1, "\u2581Chamb": 9, "Catherine": 2190, "fuck": 2103, "fuch": 85, "sample": 1132, "ezint": 1, "Termin": 3344, "ewertet": 1, "akwah": 1, "stykke": 3, "diktatur": 1, "gwaran": 3, "sulfon": 2138, "\u94be": 156728, "Germania": 82, "Url": 422, "Urm": 131, "\u2581Schmidt": 14, "adevar": 8, "membership": 163, "\u2581canad": 1, "orban": 50, "evedo": 188, "\u2581pediatri": 1, "waist": 222, "\u5546\u5bb6": 257881, "\u50e6": 1016, "Indianapolis": 277, "monde": 472, "\u4f6f": 13364, "\u2581Ether": 95, "\u2581intelligent": 14, "asier": 648, "eggian": 59, "fadh": 2, "dojn": 19, "\u2581pisi": 2, "\u52a0\u85e4": 11722, "\u2581tapas": 2, "iptv": 93, "lahti": 54, "\u5e97\u8217": 149, "tinyurl": 4, "\u2581Hass": 10, "ipto": 97, "ipta": 78, "nombr": 4, "\u2581piss": 6, "police": 1205, "\u2581Hold": 219, "Rail": 2990, "\u8102\u80aa": 371173, "Guatemala": 165, "KUV": 14, "policy": 1391, "landschaft": 13, "inibus": 27, "Exhibit": 187, "tellen": 101, "\u6942": 47126, "lunch": 696, "asyonun": 3, "spirator": 1081, "\u620e": 73444, "teller": 295, "telles": 25, "Sevilla": 167, "okai": 334, "\u2581Komple": 4, "escolar": 5, "yanan": 111, "\u707c": 91909, "sweise": 13, "DING": 1609, "6976": 398, "DINE": 282, "Antworten": 2, "DINA": 334, "olgan": 71, "/2020": 100, "/2021": 16, "DINI": 131, "tiku": 112, "\u4efb\u52a1": 1284880, "Suche": 95, "Celebration": 410, "\u5546\u58f2": 48, "tiki": 177, "minant": 134, "multiplayer": 115, "elewiz": 7, "\u2581Krui": 4, "Pocket": 2735, "zycie": 4, "\u2581Task": 72, "\u2581baud": 1, "ensuu": 33, "assurance": 167, "ajah": 185, "ajai": 30, "ajan": 282, "\u65f6\u62a5": 119624, "G": 885915, "Rights": 1407, "\u68cb\u724c\u5b98\u7f51": 17, "romano": 49, "ajad": 26, "auch": 1913, "\u5351": 208704, "ajax": 874, "tika": 1272, "ajar": 239, "\u4f20\u64ad": 679980, "dinamic": 17, "\u80dc": 1607077, "ajat": 25, "\u7b7a": 20, "ripot": 14, "\u55ea": 23278, "\u7708": 16642, "ripos": 19, "YET": 97, "frequenz": 16, "\u2581Minne": 5, "forsale": 130, "metra": 77, "\u2581ruti": 4, "first": 10766, "Bio": 16285, "Arduino": 1172, "\u506a": 54, "IMEI": 1686, "Black": 21191, "\u2581Skog": 2, "\u2581Banka": 3, "\u2581Kalin": 8, "irajo": 1, "\u56a9": 1088, "0011.": 240, "\u53d1\u5e03": 965262, "CRAFT": 441, "\u5a36": 154242, "Saxo": 903, "\u2581Jakub": 10, "speaking": 938, "dwie": 20, "\u77f3\u5bb6\u5e84": 141551, "dwig": 1919, "4,0.7": 18, "\u2581summer": 40, "4,0.5": 52, "4,0.4": 23, "4,0.3": 51, "4,0.1": 55, "4,0.0": 74, "\u5768": 27486, "\u2581Jersey": 12, "\u2581Graphic": 45, "\u7834\u89e3\u7248": 2879, "\u5728\u7ebf\u89c6\u9891": 5521, "EUROPE": 365, "fordon": 10, "talin": 209, "talii": 21, "temporada": 5, "\u865e": 124313, "talia": 168, "zeniem": 1, "\u2581Kyoto": 12, "ILLAR": 122, "\u9752\u5c9b": 431945, "\u2581Kund": 4, "kevin": 438, "\u2581Salzburg": 7, "ghju": 3, "aliban": 107, "0-3": 12420, "20]": 356, "squad": 162, "\u9ab6": 14197, "interior": 583, "Kazakhstan": 190, "600,000": 1256, "ultimate": 561, "201": 38854, "200": 888516, "203": 32344, "DHL": 3357, "205": 41522, "204": 33391, "207": 32094, "206": 34267, "209": 29228, "208": 31800, "DHE": 650, "DHC": 9938, "DHA": 12493, "aggiun": 5, "(11)": 25129, "20%": 194730, "morder": 12, "20)": 11316, "20-": 8833, "20/": 4172, "20.": 50693, "2018/12/": 43, "\u2581Muhammad": 9, "\u4f50": 304987, "angst": 24, "\u2581Letter": 46, "\u2581Trian": 13, "\u2581\u8bc4\u8bba": 8129, "lenno": 96, "\u8693": 19657, "\u5977": 53, "orksheet": 84, "lenne": 40, "sigma": 820, "angsa": 156, "\u76fe": 190530, "WG": 6999, "WF": 6595, "WE": 13444, "WD": 13344, "WC": 11457, "WB": 6614, "WA": 8436, "WO": 5536, "WN": 2633, "WM": 28336, "WL": 4967, "WK": 1734, "WJ": 2153, "WI": 7506, "WH": 8064, "WW": 7175, "\u5410": 566268, "\u62c5\u5f53\u8005": 567, "WT": 8484, "WS": 17176, "WR": 5285, "WQ": 3404, "WP": 20104, "redere": 4, "WZ": 2978, "WY": 2879, "WX": 13299, "\u2581pete": 4, "Wf": 406, "We": 36943, "Diari": 365, "schrijf": 2, "\u9752\u9752\u8349": 1607, "treasure": 585, "\u2581Magistr": 3, "Wj": 53, "Wi": 35627, "Wh": 3720, "Ww": 153, "Diary": 977, "Wq": 49, "\u2581petr": 2, "\u77bd": 3295, "Wy": 3167, "Wx": 618, "ges": 1970, "ger": 13522, "vajo": 134, "wassen": 77, "get": 33904, "Policie": 736, "83%": 14144, "vaja": 31, "geb": 121, "jpeg": 778, "\u2581kvar": 2, "\u8d56": 584476, "vaju": 8, "wasser": 160, "Estados": 42, "1.250": 411, "geo": 1815, "gen": 8869, "gem": 993, "gel": 4188, "\u2581Positi": 2, "Right": 5262, "ssociazione": 102, "Angel": 12999, "\u5e93": 1484812, "\u2581sched": 12, "menam": 7, "\u6027\u6b32": 29690, "Grant": 3274, "seat": 895, "poeng": 4, "\u9490": 1761, "\u7315": 43036, "sean": 170, "seam": 371, "Grand": 11456, "HELL": 1708, "menat": 34, "8382": 330, "wonder": 2002, "alabil": 3, "\u2581normaliz": 5, "\u2581Napoleon": 23, "\u6a2f": 4603, "label": 1834, "\u8bc4\u4ef7": 1212464, "achat": 281, "achar": 263, "across": 2738, "FOU": 239, "infrastructure": 649, "sapro": 58, "\u65f7": 95834, "FOR": 4764, "\u5546\u5e97": 138522, "CLUB": 4356, "FOX": 4360, "tsua": 37, "FOD": 213, "FOG": 292, "\u2581Tule": 1, "FOA": 433, "Each": 1040, "FOL": 705, "FON": 569, "Perse": 757, "\u2581Tull": 10, "istered": 50, "dku": 201, "punkt": 77, "dky": 78, "tour": 4237, "tous": 1967, "tout": 2632, "dka": 39, "awards": 411, "lipas": 213, "lipat": 13, "yago": 30, "\u2581Ballon": 2, "vilja": 7, "displayName": 1, "hungar": 28, "\u5f0c": 195, "leverd": 11, "ision": 756, "\u2581Cabe": 1, "yagi": 174, "\u2581television": 12, "\u2581Caba": 4, "\u679a\u5165": 108, "RELATED": 36, "lisle": 283, "iculares": 3, "\u2581Cabr": 6, "\u2581Innen": 1, "Assemble": 239, "hakik": 1, "\u2581696": 69, "\u2581697": 60, "\u2581694": 63, "\u2581695": 68, "waku": 65, "\u2581690": 139, "merang": 364, "ordna": 22, "\u9ecd": 26052, "\u2581698": 63, "\u784e": 1398, "waka": 277, "\u2581Society": 38, "wake": 1400, "\u2581Lern": 3, "\u258169.": 1752, "wakh": 8, "hardcore": 277, "kappe": 8, "krant": 87, "krans": 24, "abier": 34, "fjell": 33, "AINS": 534, "ANZ": 717, "Articol": 1, "abiel": 8, "alvo": 261, "Forums": 80, "\u6885\u7530": 2797, "\u8bc4\u4f30": 634407, "\u6994": 26303, "HSA": 906, "Acre": 280, "\u9f8c": 6789, "Intermediate": 699, "Automat": 794, "\u65f6\u65f6": 45559, "protein": 3509, "chran": 583, "IEEE": 50954, "respeit": 5, "\u2581Tahi": 4, "\u7ea2": 4563144, "47]": 99, "lavi": 832, "AINE": 190, "dolno": 1, "\u2581fact": 9, "4:26": 190, "lava": 804, "\u2581Favorite": 101, "rdings": 15, "contain": 537, "bidh": 4, "\u2581face": 79, "azep": 106, "4:21": 194, "yonel": 34, "extended": 508, "imeter": 300, "4:23": 210, "groupe": 60, "Barcelona": 1096, "\u2581Piotr": 21, "kubo": 185, "acetyl": 1341, "malga": 30, "\u5148\u540e": 982506, "rimea": 2, "rimed": 9, "kuba": 96, "\u7559\u5728": 212912, "arritz": 71, "uju": 1028, "hawak": 7, "\u2581premier": 15, "\u2581Features": 13, "ujl": 18, "ujn": 284, "ujo": 232, "\u2581Radio": 202, "uji": 4795, "Barang": 201, "\u9879": 2436670, "uje": 293, "\u2581Radia": 15, "allowance": 154, "uja": 210, "\u537f": 259275, "ndida": 93, "\u6c11\u4e3b\u515a": 78921, "cesor": 19, "\u810a": 305583, "predel": 9, "ndido": 88, "stronaut": 588, "napis": 33, "restav": 2, "\u2581Berge": 11, "zagora": 6, "flavor": 424, "fahan": 46, "\u2581Wen": 81, "\u2581Wel": 55, "\u59a5": 272966, "\u2581Wei": 195, "\u2581configuration": 3, "\u2581Weg": 34, "\u7228": 6244, "\u2581Wed": 111, "\u8d2d\u5f69": 3529, "\u2581Web": 2783, "Bir": 3998, "\u2581towar": 2, "\u2581Wet": 32, "\u2581Wes": 50, "\u2581Wer": 67, "\u8fc1": 1045949, "avale": 138, "chyn": 168, "chyl": 109, "chym": 169, "gering": 80, "viven": 40, "\u2581dildo": 1, "avali": 187, "\u7b2c\u4e8c\u5c4a": 158641, "23:33": 92, "avalt": 3, "geschlossen": 22, "GRAND": 922, "zulk": 39, "\u2581habla": 1, "zuli": 133, "nande": 272, "zulo": 11, "\u60df": 207641, "nanda": 472, "adamu": 35, "arasc": 17, "\u608e": 72, "halif": 16, "ISLA": 111, "halik": 44, "Digest": 719, "halin": 133, "nazist": 1, "responsabilidad": 6, "\u8288": 11046, "Kinder": 780, "\u2581Ultim": 15, "pracowa": 1, "2019-05-21": 4, "\u2581panas": 1, "onnexion": 34, "\u2581Mwa": 3, "thala": 700, "\u7c37": 972, "affiliate": 211, "thali": 957, "oloa": 40, "mappe": 55, "\u2581Offici": 4, "olog": 303, "\u2581Office": 828, "olok": 86, "olol": 159, "olom": 83, "olon": 412, "\u76d0": 1377124, "90.00": 10054, "Vietnam": 758, "\u73a9\u5177": 182788, "Behavior": 1982, "\u2581ples": 3, "\u2581action": 53, "iyle": 12, "\u7f61": 18616, "watqan": 1, "Imagen": 52, "nhung": 138, "Autumn": 1070, "NITE": 258, "LAIN": 246, "\u567b": 18994, "\u79fa": 97, "\u2581honor": 13, "Fredag": 1, "\u7684\u6587\u7ae0": 140753, "\u6587": 6750530, "1,900": 1463, "\u2581Kyo": 37, "\u2581Kyn": 3, "\u4f20\u5947\u79c1\u670d": 386, "\u2581Kyl": 160, "nebol": 11, "nggung": 116, "\u2581Kys": 4, "\u2581Kyr": 29, "Maintenance": 642, "Kultuur": 1, "\u2581kurt": 1, "arrefour": 620, "ologiya": 3, "isena": 53, "\u2581Krip": 15, "\u2581Kris": 63, "MASTER": 2404, "patna": 26, "\u2581Techni": 18, "isent": 78, "\u2581spiritu": 1, "4.42": 2861, "\u2581Util": 6, "Kleine": 459, "\u2581Rewards": 1, "3070": 2393, "3072": 1841, "\u7684\u539f\u5219": 327724, "laine": 1457, "3075": 1161, "cabang": 1, "3077": 1101, "3078": 1879, "3079": 733, "\u778e": 93812, "lainn": 76, "molen": 130, "forsikring": 13, "\u2581identif": 2, "hranic": 5, "liding": 478, "uretan": 17, "\u2014\u2014\u2014": 73471, "deporte": 23, "\u2581identit": 1, "\u54fd": 10744, "\u65f6\u671f": 1179392, "utulma": 1, "\u2581Ach": 80, "\u25814.00": 52, "\u2581Acc": 51, "\u2581Aca": 81, "\u6027\u683c": 482076, "\u2581Ace": 228, "\u7611": 62, "examine": 405, "\u2581Acu": 98, "\u2581Act": 443, "\u58ba": 161, "zmann": 652, "\u70aa": 247, "-100%": 2748, "ttimo": 164, "48]": 81, "akamura": 509, "\u2581Margaret": 71, "ttima": 20, "puste": 8, "48.": 27693, "Climate": 926, "\u2581Wielk": 1, "pusta": 22, "48)": 5931, "48%": 16772, "pusti": 7, "CORPORAT": 602, "\u5055": 31795, "489": 7838, "488": 8205, "487": 8767, "486": 13380, "485": 25224, "484": 8171, "483": 8043, "482": 8572, "481": 7421, "480": 67049, "\u2581860": 240, "havana": 43, "\u2581865": 96, "imdir": 2, "FIELD": 964, "szero": 56, "\u8671": 29381, "szert": 2, "u": 300973, "39.00": 4909, "wisa": 24, "\u5415\u5e03": 24780, "\u258186.": 1113, "\u2581\u5e45": 669, "isira": 2, "\u6c93": 23552, "vodni": 1, "eragin": 16, "regne": 43, "\u9e9f": 178569, "\u6020": 56168, "+44": 471, "wunder": 78, "[11]": 9494, "kkis": 18, "AVAN": 386, "\u4e2d\u5e74": 87608, "AVAL": 208, "AVAI": 106, "alisation": 76, "\u2581Germania": 3, "\u2581\u5e7f": 35057, "baidu": 1940, "iuj": 47, "ium": 6106, "609.": 1123, "kasti": 4, "\u2581tasu": 2, "6099": 581, "6098": 546, "ichiro": 273, "\u2581task": 123, "baida": 29, "correg": 6, "6090": 2465, "ius": 5484, "6092": 617, "6095": 1768, "6097": 564, "alma": 216, "ushttp": 1, "\u8966": 3986, "CTCT": 28, "almi": 32, "Concierge": 103, "almu": 39, "nzile": 4, "\u67e5\u5904": 209530, "Vilnius": 196, "flaske": 1, "\u9080": 457312, "aplama": 2, "Resum": 15, "nunk": 3, "puole": 4, "zeru": 8, "oboru": 92, "zers": 204, "proveden": 3, "Inqui": 135, "zero": 2773, "zern": 111, "vecchi": 49, "oboro": 149, "\u2581Distr": 3, "obora": 23, "zera": 79, "xpect": 1466, "\u963f\u91cc\u5df4\u5df4": 86629, "Tastatur": 1, "123456789101112": 104, "waffe": 178, "gj": 2043, "gi": 5950, "\u87ba": 471812, "5003": 1029, "5002": 943, "HCP": 6830, "5000": 324016, "mulo": 61, "5005": 1015, "5004": 904, "6.75": 5256, "Metal": 7070, "\u804b": 61317, "mula": 812, "27/": 789, "mulg": 173, "ajung": 27, "mule": 632, "\u2581Bebe": 15, "toegang": 5, "HCA": 950, "\u8bbe\u7f6e": 955027, "vrst": 20, "\u7559": 1502748, "raske": 11, "\u4e5f\u4e0d\u662f": 225962, "500.": 1861, "mult": 128, "HCM": 894, "fwn": 35, "\u2581Nike": 482, "6:31": 153, "\u2581Nika": 7, "4422": 719, "\u2581Niko": 21, "4420": 1268, "4426": 522, "medica": 165, "\u2581saran": 2, "4425": 575, "iumi": 136, "antialiased": 2, "femei": 1, "elfare": 657, "\u8d22\u7ecf": 305258, "\u6625\u5929": 157767, "\u2581trend": 4, "africa": 89, "lyde": 1272, "\u5e74\u53ce": 12, "28.00": 8056, "\u6625\u590f": 45154, "itott": 7, "YSB": 121, "Pieter": 524, "\u2581Stall": 12, "\u2581Washing": 4, "\u78b1": 324586, "\u2581Taiwan": 47, "\u6027\u7684": 1041073, "iladi": 27, "icks": 835, "\u2581Entwicklung": 1, "aihan": 25, "\u2581prince": 10, "desit": 30, "zusa": 180, "komu": 45, "komt": 6, "mbit": 199, "koma": 237, "\u2581Teatr": 5, "andmed": 24, "karaoke": 92, "\u2581Praha": 6, "hout": 891, "torony": 6, "halte": 61, "hour": 1889, "houd": 196, "tengok": 6, "remain": 1615, "\u2581Thompson": 58, "\u610f\u5916": 382282, "\u6c17\u8efd": 43, "explod": 197, "\u4e2d\u5fc3": 3644726, "minimum": 541, "\u2581Activ": 65, "Sanskrit": 130, "\u591b": 108, "biography": 500, "stin": 791, "needs": 1681, "stij": 6, "stik": 201, "stih": 7, "\u2581Mhe": 2, "stig": 299, "stid": 31, "comfort": 648, "stic": 1488, "opano": 36, "stia": 54, "maps": 703, "alizator": 3, "oficina": 10, "\u2581Veer": 7, "acta": 323, "stit": 50, "stiu": 105, "acte": 836, "stip": 72, "\u81ea\u89c9": 169542, "shiba": 321, "Profile": 2246, "oforo": 106, "uitable": 1527, "\u25813.8": 1357, "\u25813.9": 901, "\u25813.6": 2715, "\u25813.7": 1805, "\u25813.4": 5681, "\u25813.5": 7577, "\u25813.2": 9210, "\u25813.3": 7793, "\u25813.0": 925, "\u25813.1": 9730, "viens": 87, "\u2581Deve": 3, "\u2581Deva": 7, "vient": 95, "\u2581Devo": 39, "\u4e0b\u65b9": 241784, "\u2581Devi": 18, "kaufen": 19, "NIKA": 139, "NIKE": 4280, "\u2581Naj": 14, "hfs": 81, "NIKI": 89, "vatten": 10, "NIKO": 293, "\u576f": 83058, "dragon": 3909, "brado": 52, "hfm": 281, "hfo": 12, "brada": 38, "\u9752\u5e74": 1057766, "rotas": 10, "rotar": 153, "calf": 474, "\u7956": 1033704, "\u2581students": 10, "oluzione": 4, "\u7618": 22024, "rotan": 35, "otti": 1338, "\u2581accident": 16, "agnifique": 30, "\u79bb\u5a5a": 225173, "baar": 41, "baat": 113, "baah": 1, "baai": 14, "9/2019": 2, "9/2018": 4, "\u4e2d\u5c71": 311532, "baan": 82, "patur": 17, "9/2013": 14, "9/2012": 21, "9/2011": 18, "9/2010": 68, "baad": 20, "9/2016": 19, "9/2015": 8, "7772": 488, "7.07": 2710, "7.06": 4164, "7.05": 4024, "laise": 370, "\u2581prono": 3, "ichni": 53, "7.00": 42089, "Fuchs": 618, "ivent": 148, "\u4e2d\u5c0f": 375331, "\u2581Lime": 51, "appliqu": 34, "7.08": 3215, "\u8bd1": 703213, "otta": 1339, "\u2581conference": 7, "rank": 2243, "compound": 1134, "4,40": 806, "dnev": 48, "vecchia": 40, "\u2581tulu": 2, "aikan": 36, "ngguh": 8, "uvarla": 2, "isation": 734, "micro": 10588, "\u2581tule": 2, "disana": 2, "universit": 265, "visitar": 11, "\u687c": 125, "\u2581Ukra": 1, "engyel": 18, "tiffany": 205, "\u610d": 8154, "\u2581ALT": 618, "stettu": 1, "edro": 47, "Tempel": 218, "\u2581ALL": 312, "\u2581ALB": 68, "\u53bb\u54ea": 64594, "pargi": 8, "carse": 35, "ovanje": 3, "perro": 53, "\u2581INTER": 111, "Cook": 3809, "\u2581onbe": 5, "evaluation": 1115, "Clear": 4059, "slekt": 4, "Cool": 6574, "8888.": 60, "0109": 904, "0108": 1598, "\u2581Woods": 7, "0105": 1884, "0104": 1660, "0107": 844, "0106": 1897, "0101": 5905, "0100": 4150, "0103": 2485, "0102": 2768, "backen": 70, "\u2581cabr": 1, "Spa": 10173, "\u7279\u6717\u666e": 63737, "rnos": 109, ".07.18": 241, ".07.19": 274, "\u77e5\u7684": 166549, "\u2581een": 4, "edges": 321, "rnod": 18, "\u89e3\u51b3\u65b9\u6848": 296057, "[3]": 11870, "tolak": 3, "kayet": 10, "nadmi": 9, "\u2581Hochschul": 3, "IRM": 542, "advertisement": 247, "\u4e0b\u6765": 731629, "zobraz": 4, "hafen": 256, "ameya": 14, "Vienna": 799, "\u5b9f\u88c5": 25, "rantzi": 4, "\u2581Thur": 13, "verleih": 35, "hayag": 15, "uarto": 20, "\u4ea9": 2564557, "Screen": 3998, "minent": 192, "88888": 1544, "Environmental": 4397, "\u2581laser": 15, "kewa": 19, "IRG": 459, "razon": 119, "\u2581langs": 2, "ierpi": 60, "rskih": 6, "etsa": 160, "\u94c5": 177096, "Justin": 4356, "etse": 131, "\u2581taha": 1, "etsi": 28, "etso": 144, "\u6625\u5b63": 116105, "aximilian": 563, "\u2581PMI": 116, "etsu": 837, "ylinder": 347, "\u2581PMC": 133, "skega": 2, "ellent": 114, "ETAS": 121, "Partnership": 1082, "\u50ed": 7371, "\u2581+12": 484, "lectiv": 19, "ubin": 340, "\u515a\u5efa": 80592, "EACH": 4244, "lectic": 276, "\u2581Ilm": 2, "mmings": 474, "ubic": 572, "ubia": 5577, "udition": 952, "\u2581Frost": 60, "\u2581kula": 1, "izzazione": 22, "urban": 1770, "\u2581kulo": 1, "cteur": 97, "CCHI": 208, "],\"": 143, "Administrative": 412, "blanch": 17, "\u2581induc": 2, "\u2581lug": 2, "blanco": 51, "utada": 16, "blanca": 93, "hodnot": 1, "agalog": 5, "andosi": 11, "\u51ac": 877238, "\u2581Buff": 40, "ertrek": 16, "ortoj": 7, "\u2581beach": 6, "edifici": 7, "nhap": 17, "carbonat": 26, "eggs": 518, "\u2581Limon": 13, "chart": 1145, "chette": 297, "\u2581mehr": 4, "chetta": 89, "rusha": 112, "1%83%": 6, "services": 2316, "Fresh": 2827, "chetto": 114, "egge": 125, "chard": 1255, "stolet": 84, "\u2581combat": 4, "Philadelphia": 804, "],[": 1566, "WATCH": 936, "dimension": 433, "manufaktur": 15, "berichten": 4, "kawai": 150, "\u9702": 6989, "Expert": 2038, "NAC": 1738, "AGGI": 80, "simula": 281, "NAF": 669, "headlines": 92, "chock": 207, "aggrund": 2, "abwer": 3, "\u2581gaf": 2, "konto": 47, "-49": 7277, "skiego": 91, "NAD": 2210, "andien": 4, "-42": 7863, "-43": 6225, "-40": 42509, "-41": 6615, "-46": 6405, "-47": 10819, "-44": 6541, "-45": 28342, "yllis": 372, "\u2581I": 39144, "Caterpillar": 384, "-4)": 4040, "-4.": 2540, "-4-": 16968, "kontu": 5, "NAH": 602, "\u2581Dip": 31, "1316": 4232, "1315": 6203, "\u2581Dis": 322, "1313": 4430, "1312": 3834, "1311": 3591, "1310": 7022, "Diesel": 1017, "\u2581Diz": 3, "\u7b4a": 951, "Favorite": 955, "\u7161": 28, "1319": 2792, "\u2581L": 18677, "odatkow": 5, "\u2581Dia": 112, "\u786e\u5b9a": 1114764, "illboard": 336, "\u2581Did": 170, "\u2581Die": 443, "\u76d7": 553167, "\u2581Dig": 45, "\u515a\u59d4": 379328, "unul": 43, "\u2581N": 18624, "\u2581Dil": 29, "\u2581Dim": 394, "\u2581Din": 64, "\u2581Dio": 40, "NAR": 1855, "Subtitle": 52, "NAS": 10270, "\u2581obje": 1, "szin": 5, "NAP": 2259, "Minneapolis": 267, "szik": 1, "\u5df1": 412603, "BOK": 906, "\u641c\u7d22": 352972, "yce": 457, "Female": 1084, "NAV": 1067, "\u9014": 638544, "rengen": 14, "ousin": 654, "\u2581W": 17766, "\u2581symbol": 12, "PORN": 21, "NAU": 437, "NAZ": 111, "ngoe": 16, "\u2581gay": 954, "aniem": 11, "GES": 716, "\u81ea\u884c": 284504, "stringify": 1, "NAY": 102, "2.44": 3961, "GET": 3807, "fotograf": 15, "\u2581next": 134, "interloc": 59, "ngoa": 21, "GEB": 259, "GEA": 778, "\u6d41\u6c34": 162524, "GEE": 286, "GED": 489, "20:45": 1403, "-10-02": 435, "\u631e": 17414, "GEO": 2405, "GEN": 3011, "GEM": 2035, "GEL": 1329, "\u258133,": 163, "\u7559\u4e0b": 494801, "\u258133.": 7234, "Superstar": 1071, "\u5949": 527072, "\u4ea7\u80fd": 139191, "\u2581krim": 1, "\u7cfb\u7edf\u7684": 481519, "petua": 313, "utki": 14, "\u2581339": 197, "\u2581338": 213, "\u2581335": 311, "\u2581334": 363, "\u2581337": 286, "utka": 34, "\u2581331": 534, "\u2581330": 582, "\u2581333": 507, "\u2581SUN": 696, "Detective": 812, "\u2581acredit": 1, "Yek": 86, "INFOR": 414, "\u82e4": 1151, "Yea": 5265, "\u2581SUL": 8, "foreign": 1656, "tkani": 2, "\u2581SUB": 128, "\u2581paleo": 1, "Green": 16890, "Yes": 6939, "pertension": 1, "\u4e00\u5bf9": 215938, "\u2581narco": 7, "\u822c\u7684": 184727, "\u2581108,": 20, "point": 8516, "\u258105/2": 22, "\u2581minne": 2, "\u2581accent": 11, "\u2581garage": 3, "\u505b": 24, "anticipat": 205, "miglia": 72, "isteet": 30, "\u4e2d\u5b66": 1219410, "fused": 350, "inean": 67, "Processing": 3232, "\u502e": 3175, "smotr": 13, "\u4e09": 10074856, "\u8138": 1047727, "2.49": 4730, "arjous": 1, "poloni": 38, "adresse": 29, "ffici": 623, "Stockholm": 424, "\u2581bibi": 12, "\u2581hihi": 15, "kaveri": 17, "Ceza": 124, "skift": 15, "erfreu": 3, "\u2581SUP": 108, "25.000": 111, "\u2581|": 8092, "litig": 9, "\u8bbe\u7acb": 670622, "/03/19": 98, "\u2581observation": 5, "\u8bff": 11427, "tablissement": 82, "portugal": 3, "century": 1246, "Mother": 2496, "ezagu": 2, "Delay": 1339, "orales": 542, "pents": 59, "lacions": 2, "episcop": 58, "panjang": 11, "\u5fb7\u56fd": 846343, "pentu": 15, "ethylene": 2031, "/05/19": 76, "Copa": 982, "Szombat": 20, "\u752b": 169361, "/05/13": 50, "\u2581pupu": 3, "1243": 3602, "/05/17": 31, "\u2581pupi": 2, "\u5bb4": 297681, "vimi": 82, "products": 2047, "Copy": 2123, "\u2581Maschinen": 5, "currencies": 78, "\u2581Unit": 1430, "\u2581spur": 5, "\u2581Yang": 154, "\u2581Yana": 7, "LVE": 331, "\u2581uit": 3, "\u6bd4": 4736029, "Artigos": 1, "zielon": 6, "LVL": 227, "parfait": 56, "LVI": 58, "\u2581\u5b9c": 18868, "signor": 96, "PLANT": 788, "Serving": 188, "tugu": 58, "\u5409\u7530": 10485, "skott": 63, "lijst": 31, "\u8f6b": 4024, "guera": 140, "Economie": 228, "withdraw": 297, "\u2581\u5bb8": 374, "guero": 60, "ustavi": 29, "\u25812017-12-0": 5, "1967": 77526, "ustava": 17, "\u5a08": 2258, "\u2581Richard": 624, "1961": 97541, "batar": 7, "izin": 134, "\u9497": 38898, "izim": 15, ".[2]": 778, "izia": 210, "timber": 148, "lithi": 233, "\u693c": 80, "\u4e0b\u624b": 56148, "\u6a28": 4684, "schlechte": 20, "TURN": 1070, "\u5d32": 29, "hikari": 183, "TURI": 42, "jetor": 1, "TURE": 1810, "easter": 187, "TURB": 1021, "Astra": 1689, "\u2581Precio": 33, "athiri": 12, "\u25812:3": 37, "ondial": 177, "XIAO": 648, "blowjob": 12, "\u6d52": 56755, "hemed": 17, "teurs": 86, "\u7791": 7212, "\u2581Mercur": 13, "\u2581Secu": 31, "blech": 29, "\u2581Muh": 63, "\u2581rapi": 3, "Assessment": 1559, "knock": 1286, "artikol": 1, "irinn": 7, "manzi": 23, "\u2581season": 38, "\u2581Muk": 9, "byss": 706, "\u2581????????": 44, "latvi": 4, "Management": 21565, "\u9a88": 16501, "\u7684\u4e00\u4e2a": 1086434, "2870": 1536, "\u5417": 2463549, "Dakar": 103, "candle": 309, "\u2581capta": 1, "\u2581metro": 6, "anyaga": 2, "ORUM": 91, "Projet": 47, "\u6572": 206592, "poze": 5, "tially": 162, "\u2581Immo": 5, "pozi": 8, "montar": 13, "VISION": 2663, "\u4e45\u4e45": 28018, "Cascade": 455, "\u2581(54)": 338, "\u2581Sech": 6, "\u2581Hamma": 9, "\u521b\u4f5c": 1723162, "between": 5876, "\u6761": 5379592, "\u2581inclin": 5, "\u2581lupa": 1, "6%9": 222, "mbra": 371, "uckle": 616, "mbro": 652, "6%)": 9466, "tifo": 73, "tiff": 871, "\u62d6": 520530, "erkez": 28, "gebuch": 32, "\u4e2d\u5956": 44362, "tify": 958, "erken": 81, "tifu": 26, "tovar": 35, "tifs": 36, "erkek": 2, "\u2581Tut": 13, "hoeve": 112, "\u2581Tup": 18, "limitat": 6, "\u2581Tur": 133, "\u2581Tus": 25, "MBER": 539, "Blowjob": 5, "YXJ": 22, "\u9f30": 22, "pris": 1224, "\u2581Tug": 5, "YXN": 9, "\u2581Tua": 14, "\u2581Tub": 18, "\u2581sein": 5, "YXB": 110, "\u2581Tum": 17, "\u2581Tun": 45, "\u2581Tuo": 16, "\u2581Tuk": 16, "\u2581Campus": 31, "\u2581Hege": 6, ",0,0,0,0": 56, "\u4e45\u4fdd": 9369, "\u88d5": 287659, "tapos": 34, "emne": 39, "Beijing": 7152, "wszech": 1, "zhu": 10887, "zht": 448, "\u4efb\u4f55": 1594450, "\u2581Garr": 43, "6117": 475, "6110": 1833, "\u2581deput": 5, "6112": 639, "zha": 1225, "\u2581Maho": 8, "zhc": 418, "\u79bb\u5f00": 614525, "\u2581Garn": 13, "zhd": 641, "\u86cb\u7cd5": 145556, "\u2581Mahi": 7, "zhi": 13623, "\u2581seis": 6, "\u2581Gara": 10, "\u2581Garg": 3, "\u2581Gard": 2, "\u2581Gare": 48, "1/7": 2428, "curr": 462, "curs": 607, "1/6": 6636, "ASYON": 1, "utilit": 117, "VHS": 2426, "\u6e11": 5735, "Prism": 1625, "cure": 1095, "euse": 912, "cura": 1296, "curo": 53, "rgum": 27, "\u2581transform": 7, "curi": 3122, "igara": 52, "\u2581tumor": 3, "nzhou": 975, "igare": 38, "\u2581need": 57, "vitin": 85, "WELL": 1749, "igaro": 328, "-04-14": 2508, "vitis": 166, "\u610f\u5fd7": 165901, "\u2581Cristi": 3, "anset": 70, "anser": 271, "anses": 23, ".806": 316, "Advance": 3696, "cated": 304, ".803": 408, ".800": 1097, "priv": 436, "\u2581lado": 1, "messung": 10, "aacute": 17, ".808": 320, "pisode": 14, "HDTV": 3853, "\u8fdb\u4e00\u6b65": 1126866, "3900": 10199, "\u2581lady": 63, "enregistr": 9, "458.": 1510, "\u2581replica": 4, "\u72ee": 321730, "\u9e71": 1170, "4588": 600, "4584": 418, "4580": 1331, "4582": 619, "\u5800": 13447, "kalus": 2, "qiao": 2372, "qian": 3273, "RAJA": 52, "\u4e86\u8d77\u6765": 82561, "\u2581minus": 7, "/06/2015": 5, "[...]": 327, "illionaire": 519, "literari": 15, "nggil": 10, "6.05": 6364, "\u7bad": 235003, "cavall": 53, "meisje": 2, "\u2581follow": 44, "\u6808": 98831, "\u4f3a": 76088, "-2013,": 1062, "objet": 48, "\u8457\u8005": 20468, "elela": 30, "\u52c7": 884584, "\u2581\u5609": 30835, "embak": 15, "milyon": 1, "\u2581Provid": 5, "\u2581Certificate": 30, "\u2581Provin": 3, "<0x90>": 53837, "entire": 899, "Konferens": 5, "bsurd": 138, "\u62e7": 44394, "Konferenz": 9, "rroga": 30, "\u94bc": 29354, "Rashi": 392, "\u2581Trink": 2, "\u2581naturel": 1, "omunicaciones": 16, "0;}": 69, "\u2581communicat": 7, "peint": 32, "\u9880": 4291, "\u2581Shape": 70, "\u2581Pint": 28, "\u7f05": 165020, "Howard": 3859, "MOVIE": 1463, "visualiz": 255, "Fast": 5642, "rivers": 249, "odni": 7, "odno": 9, "\u2581your": 186, "\u2581Blonde": 13, "\u2581Adria": 8, "inglese": 10, "\u561f": 47936, "Codice": 9, "DISTRIBU": 149, "\u65b9\u6848": 980301, "izzant": 8, "IUM": 1224, "fat": 1901, "\u2581bless": 8, "Refriger": 176, "\u4e2d\u56fd": 10195895, "lature": 238, "IUS": 901, "\u8fba": 1322, "latura": 11, "\u2581Warn": 7, "renom": 28, "\u2581Warm": 53, "jambul": 1, "IFSC": 170, "\u2581Ward": 36, "\u2581Ware": 9, "\u5730\u5143": 1792, "packing": 378, "\u2581UNA": 17, "healing": 280, "osred": 1, "\u2581Wars": 4, "8125": 487, "\u2581Wart": 6, "Vest": 919, "drops": 569, "skool": 40, "7700": 4480, "\u2581Pinc": 8, "7708": 1108, "Jennifer": 3310, "\u2581Spiel": 9, "\u5473": 2210512, "leadership": 504, "\u2581Pina": 12, "kinsa": 18, "770.": 830, "nzele": 1, "implement": 534, "\u2581Polyester": 3, "umanitar": 1, "bildungen": 4, "||0": 19, "TextLength": 15, "\u2581Makar": 6, "Rhode": 456, "zijn": 47, "Answer": 964, "\u919b": 108555, "zije": 9, "\u731c": 292240, "\u5b8c\u4e86": 153864, "haken": 59, "hakem": 20, "\u2581Gonz": 9, "\u2581Alliance": 27, "\u2581UND": 25, "\u2581HAL": 84, "\u2581Gond": 8, "\u2581Gong": 25, "\u2581Stuttgart": 10, "Astor": 321, "\u6295\u624b": 13177, "\u2581UNE": 24, "\u2581HAM": 25, "sinden": 10, "icillin": 368, "\u7ecf\u5e38": 1011402, "ILMA": 54, "Lietuva": 4, "0808": 1474, "0809": 1348, "rygina": 11, "0804": 841, "0805": 1277, "0806": 774, "0807": 911, "0800": 2319, "0801": 1805, "0802": 1509, "0803": 824, "hanem": 26, "080.": 440, "5794": 337, "atorial": 432, "Fransa": 6, "fetch": 1171, "5799": 604, "YI": 2511, "YH": 3525, "YK": 3134, "YJ": 9407, "YM": 2591, "YL": 7206, "YO": 5627, "YN": 1903, "YA": 4722, "YC": 5706, "YB": 7903, "YE": 5262, "YD": 5499, "YG": 6586, "YF": 3852, "YY": 41674, "YX": 3082, "\u2581Electron": 13, "YZ": 5662, "Mississippi": 571, "\u4e2d\u534e\u6c11\u65cf": 125725, "YQ": 1337, "YP": 12707, "YS": 8069, "YR": 2283, "YU": 4403, "YT": 3537, "YW": 2739, "YV": 998, "Yk": 51, "Yj": 45, "Ym": 160, "Yo": 7312, "Yn": 524, "Ya": 12681, "IMAGE": 871, "Yb": 782, "holdt": 94, "Yf": 57, "\u2581Medien": 5, "Yx": 129, "varies": 89, "Yz": 115, "KFC": 5124, "lieferung": 8, "Yq": 40, "Yp": 290, "Yu": 17020, "holde": 42, "Yw": 26, "encia": 243, "profile": 1752, "\u4e2d\u578b": 123521, "Emerg": 990, "\u515a\u5458": 771019, "NZE": 192, "NZD": 1722, "\u6e25": 18242, "aalka": 18, "NZO": 376, "\u2581Neb": 6, "\u2581Nec": 45, "\u2581Nea": 8, "\u2581Nef": 31, "\u2581Neg": 35, "\u2581Sabin": 33, "\u2581Nee": 15, "\u2581Nej": 2, "\u2581Nek": 51, "\u2581Neh": 85, "\u2581Nei": 12, "\u2581Nen": 2, "\u2581Neo": 444, "\u2581Nel": 30, "\u2581Nem": 111, "epatu": 25, "\u2581Nes": 47, "\u2581Nep": 19, "\u2581duplic": 1, ".499": 312, "\u2581New": 1494, "\u2581Net": 1168, "\u2581Neu": 149, ".495": 481, "ertanding": 1, ".497": 392, "holat": 18, ".491": 636, "aprika": 104, "\u2581beton": 1, "atura": 436, "\u2581vys": 1, "ature": 404, "aturi": 53, "FINANC": 334, "keemi": 13, "\u2581vya": 4, "residencia": 5, "ovych": 94, "begeister": 2, "rabu": 54, "utebol": 128, "hjul": 8, "Girona": 62, "\u2581achi": 2, "\u2581Story": 190, "\u2581Ipa": 3, "raba": 281, "\u2581Store": 28, "rabe": 158, "Mer": 14744, "uros": 156, "rabi": 637, "korps": 82, "\u2581Storm": 118, "Podcast": 596, "Geral": 69, "\u2581Stori": 2, "\u7942": 4590, "\u2581ship": 18, "\u2581491": 144, "guda": 102, "equilibri": 477, "\u83d1": 1277, "chowski": 212, "\u2581\u5317\u4eac": 230762, "\u2581Sheet": 49, "\u2581DSC": 186, "\u2581DSL": 69, "gtgg": 3, "Robin": 6218, "\u975e": 2919527, "LETA": 61, "LETE": 765, "\u2581Incorporated": 7, "Ny": 2712, "\u2581humili": 1, "Gard": 1353, "ulating": 518, "sexuel": 7, "LETT": 136, "Gary": 7352, "artean": 9, "\u607c": 237955, "8977": 357, "katolick": 3, "tsoa": 46, "\u5386": 1727542, "\u690d": 634077, "\u2581Sport": 59, "\u2581astro": 8, "kasam": 23, "tsov": 311, "Prinz": 396, "Print": 3576, "\u2581yam": 4, "sexual": 1077, "Nr": 894, "alizada": 14, "adalafil": 6, "ibrid": 4, "\u5730\u533a": 2423632, "\u4e0b\u6ed1": 134068, "Heim": 572, "China": 63716, "Chino": 685, "\u9e43": 66867, ",000.00": 13893, "ginan": 52, "\u2581BIR": 35, "\u2581BIS": 51, "\u2581jalo": 1, "\u71f9": 5291, "ingesch": 3, "\u6fb3\u95e8\u8d4c\u573a": 736, "\u2581BIN": 48, "\u2581BIO": 169, "2839": 726, "\u2581BIM": 293, "2837": 1050, "2836": 1105, "2835": 1300, "2834": 935, "\u529b\u91cf": 748214, "\u90dc": 11209, "2831": 1370, "2830": 3101, "1436": 3470, "yara": 80, "Outlook": 4806, "1435": 4623, "yard": 1963, "1433": 3519, "1430": 5930, "1431": 2628, "gaben": 9, "yari": 86, "recipes": 159, "skateboard": 58, "yarn": 272, "1439": 3206, "ybern": 26, "8-8": 1588, "8-9": 15399, "143.": 4460, "8-5": 2369, "8-6": 2161, "8-7": 1710, "8-0": 1886, "8-2": 3167, "8-3": 2131, "[38]": 1272, "\u5d04": 907, "missa": 144, "sack": 569, "outerHeight": 1, "Pickup": 397, "\u2581Sele": 15, "\u2581exceed": 4, "bijou": 21, "dogan": 100, "\u2581conversation": 10, "Symbol": 953, "izeaza": 2, "shlash": 2, "\u2581wiki": 155, "Actualidad": 1, "intermediate": 578, "\u2581drama": 18, "Haikyu": 2, "adika": 24, "\u2581Unde": 76, "paar": 63, "iburan": 10, "\u9cc5": 20779, "\u2581Conne": 4, "\u73db": 69, "\u5021\u8bae": 40549, "fafan": 6, "2233.": 129, "rbox": 430, "morph": 1748, "/06/": 1131, "\u2581lamba": 2, "Sabrina": 368, "sweden": 22, "\u89f7": 38, "signation": 68, "\u2581verse": 14, "anganan": 3, "0/70": 1340, "houders": 26, "havs": 35, "\u2581creative": 11, "hava": 275, "have": 25907, "uova": 35, "hwan": 175, "havi": 2145, "havo": 222, "havn": 113, "\u2581Informa": 4, "isuus": 1, "\u6d88\u8d39": 878913, ":0}": 7, "urnalist": 6, "8448": 345, "\u2581Hend": 3, "\u59ac": 697, "otisk": 6, "otish": 24, "\u2581everyone": 29, "modificar": 2, "senki": 19, "\u5c45": 2097372, "taker": 1154, "\u2581Lill": 26, "\u7740\u4e08": 116, "senka": 15, "\u2581Lili": 76, "\u69cc": 18218, "\u8d4f": 687974, "mamoto": 874, "\u2581Pian": 11, "payment": 845, "\u56de": 4092078, ":09": 1226, ":0;": 242, "geler": 45, "keitto": 131, "&#40;": 1, "\u2581sari": 1, ":00": 8901, "1,000": 16436, "geleg": 5, "\u2581mexi": 2, "sentral": 617, ":0,": 1269, ":0!": 112, "occasion": 409, "Kost": 958, "Banco": 416, "\u66fe": 3096462, "]}}": 10, "encontr": 34, "recess": 162, "tussen": 10, "empia": 3, "\u515a\u5185": 66289, "empio": 45, "remur": 11, "2659": 686, "IX": 7444, "Jangan": 17, "\u579d": 119, "enjin": 94, "\u2581(#": 70, "\u2581Reality": 11, "knowledge": 2254, "\u2581(*": 366, "\u7eaa\u5f55": 288215, "bildung": 52, "\u2581(2": 1319, "\u2581(3": 1089, "\u2581(0": 224, "\u2581(1": 1376, "\u2581(6": 436, "\u2581(7": 289, "\u2581(4": 924, "\u2581(5": 462, "sekreter": 1, "\u2581(8": 299, "\u2581(9": 201, "\u65b9\u6cd5": 2365068, "\u863c": 4204, "leli": 68, "\u2581(@": 23, "lelo": 75, "lela": 63, "Smith": 13397, "\u5546\u4e1a": 1413719, "\u2581North": 209, "lele": 210, "asso": 1085, "340.": 2304, "3401": 643, "3400": 18228, "3402": 1462, "3405": 932, "3407": 554, "3406": 856, "3409": 677, "3408": 907, "\u258113:00": 5298, "\u65b9\u9762\u7684": 581929, "ruso": 288, "4875": 678, "4874": 467, "4877": 452, "4876": 523, "4871": 374, "4870": 1777, "206.": 2872, "arrera": 87, "gyen": 43, "\u2581alcan": 1, "gyel": 182, "gyek": 83, "ganan": 50, "teams": 480, "2068": 1553, "Mafi": 541, "ganar": 21, "ganas": 134, "opion": 33, "2060": 5816, "2061": 1842, "2062": 2796, "2063": 1349, "2064": 1334, "2065": 1779, "2066": 1460, "2067": 1518, "\u2581Cooper": 57, "\u2581diplomati": 1, "zoku": 101, "grosse": 138, "\u2581Harbor": 31, "\u8d21": 237059, "ileyo": 5, "athlon": 221, "\u2581district": 2, "\u2581Zoo": 51, "\u68e6": 14, "ahiran": 3, "\u258123,": 327, "precedente": 106, "brunn": 311, "fremt": 3, "ammlung": 41, "atsar": 26, "Peterburg": 29, "\u5149": 5794163, "Kashmir": 144, "ualmente": 6, "mowy": 6, "armenia": 100, "nnual": 2109, "\u2581Drift": 28, "joko": 17, "joki": 80, "arquitet": 2, "equal": 1906, "\u2581Check": 309, "0044.": 70, "rust": 1681, "2,80": 964, "\u7eaa\u5f8b": 178735, "\u2581compress": 7, "chondr": 228, "szerint": 1, "wear": 5850, "crear": 30, "\u2581232": 712, "\u4e2d\u534e": 766817, "ayari": 27, "erkmale": 3, "IS": 29080, "iges": 65, "\u5927\u5b66\u751f": 521112, "Konzept": 6, "\u8bba\u6587": 1116401, "verton": 281, "\u5b69\u5b50\u4eec": 251419, "\u2581Pied": 69, "AZA": 673, "igen": 1273, "concours": 49, "wurde": 105, "\u2581Pater": 13, "\u5546\u4f1a": 169393, "\u9063": 157957, "Nations": 1485, "mundo": 396, "competitie": 2, "IU": 28137, "6487": 369, "locales": 24, "einte": 19, "brauch": 29, "hubh": 7, "huba": 111, "oleksi": 1, "sicologia": 6, "\u2581IMP": 162, "General": 8421, "eintr": 22, "\u201c.": 3260, "\u2581IMG": 89, "amoxicillin": 13, "\u4e2d\u533b": 506520, "pproximat": 278, "\u2581\u97e9\u56fd": 28013, "orts": 255, "4.92": 2793, "\u2581Schach": 2, "\u9942": 23, "pantip": 2, "\u2581neutro": 3, "Beach": 7513, "\u4e2d\u53e4": 22317, "MBO": 2182, "Return": 2764, "pleur": 540, "YAMAHA": 1491, "\u2581Credit": 62, "\u7d2b": 1031190, "rret": 111, "MBA": 64437, "MBC": 11734, "02-": 15114, "imwi": 10, "rrel": 398, "auto": 7696, "rrec": 43, "02/": 1151, "MBR": 2927, "Posted": 46, "lippers": 192, "gezogen": 17, "okiet": 7, "\u2581Primo": 27, "gueira": 130, "\u4e4d": 56894, "camino": 57, "\u2581better": 20, "inantis": 4, "\u2581anke": 1, "yoga": 716, "\u4e2d\u539f": 179142, "\u86cb\u767d": 656804, "4018": 1072, "\u2581Pants": 6, "4013": 683, "4012": 762, "4011": 827, "4010": 2140, "4016": 784, "4015": 694, "4014": 1213, "\u2581Pante": 4, "026": 4807, "\u2581Panta": 23, "\u6cf6": 219, "\u8879": 580, "glyceri": 203, "\u2581Panto": 27, "\u2581prud": 1, "%80%": 4355, "020": 11245, "10.20": 4608, "10.23": 3051, "stores": 324, "10.25": 4479, "\u5208": 7331, "dekor": 5, "giornat": 18, "\u2581lapar": 2, "taken": 1406, "1447": 2311, "ernstein": 810, "gleich": 46, "ltaan": 1, "reformen": 5, "inoon": 24, "rimeiro": 13, "2016/10/2": 1441, "\u4e21\u9762": 18, "\u2581qad": 1, "Thread": 2470, "addEventListener": 18, "\u5730\u57df": 180289, "\u2581qan": 4, "resolver": 15, "Release": 1921, "\u2581qaz": 1, "\u70df": 1571019, "lika": 151, ".307": 305, "\u2581Popp": 61, ".300": 1515, ".303": 498, "08.16": 311, "08.10": 2432, ".308": 568, "08.12": 4788, "liko": 136, "armani": 111, "likt": 11, "Rear": 555, "\u2581Pope": 31, "\u2581gha": 5, "chick": 602, "TION": 5737, "chico": 111, "pyat": 40, "enky": 109, "enkt": 8, "hain": 1028, "hail": 421, "\u2581ghe": 1, "hair": 2841, "hais": 145, "06.18": 398, "enko": 934, "ARGO": 901, "06.12": 8379, "ARGA": 152, "06.10": 2927, "06.11": 3394, "\u610f\u56f3": 47, "enka": 461, "incant": 94, "OSZ": 14, "\u2581Sla": 20, "OSP": 939, "OSS": 2447, "OSU": 539, "OST": 4437, "OSV": 310, "OSI": 3217, "OSH": 1030, "OSM": 591, "\u6c37": 1575, "OSN": 204, "OSA": 2268, "\u5fb7\u5dde": 47267, "OSC": 701, "OSB": 312, "OSE": 2833, "mode": 7670, "\u5f41": 63, "\u2581466": 106, "\u2581impuls": 16, "indexOf": 48, "uwang": 599, "\u2581460": 273, "\u5730\u5740": 597151, "Ignor": 190, "35,000": 1810, "\u59da": 278174, "\u6f61": 44, ":-)": 562, "\u65f6\u7684": 438397, "\u2581limon": 2, "\u5353": 280766, "\u5185\u5730": 212843, "\u8ba4\u771f": 657522, "\u2581sauna": 1, "\u2581citron": 2, "Duminic": 1, "Japan": 7957, ":-1": 403, "noho": 224, "Psychology": 1846, "mbroidered": 39, "teiste": 1, "termini": 28, "termine": 157, "eggja": 2, "\u8ba3": 3770, "elastic": 782, "-2007,": 1593, "assende": 2, "FAST": 2447, "\u9730": 10728, "FASH": 1330, "\u4e2d\u5171": 644438, "\u8d2d\u4e70": 864385, "\u2581choice": 26, "ervantes": 148, "\u2581toko": 1, "\u2581\u4eba\u6c17": 88, "kisah": 2, "<0x8D>": 81561, "\u2581never": 113, "ordoba": 92, "rojan": 2938, "8.25": 3938, "sjons": 3, "8.27": 2296, "8.20": 3012, "8.21": 2009, "8.22": 1737, "8.23": 2298, "\u5b58": 1752618, "8.29": 2765, "\u2581Nair": 2, "thora": 875, "mizu": 386, "\u8c62": 6775, "flix": 188, "1188": 3901, "\u2581Urs": 20, "1186": 3853, "flit": 38, "1184": 2956, "1185": 4603, "1182": 3193, "1183": 3310, "1180": 9190, "1181": 3141, "118.": 8541, "mize": 51, "\u2581Urg": 8, "iallo": 111, "\u2581Ura": 7, "flik": 29, "Erika": 427, "IG": 14184, "antova": 50, "\u2581Uri": 11, "\u2581Ergo": 17, "Bathroom": 236, "ZHU": 623, "\u2581Gao": 53, "ZHE": 290, "ZHI": 394, "utuva": 1, "itaan": 11, "affle": 398, "\u60aa": 2647, "detail": 492, "\u2581\u51ef": 26835, "gutes": 2, "Wireless": 4559, "\u2581mora": 8, "dresses": 76, "dresser": 82, "nikih": 1, "\u2581mord": 1, "Holste": 34, "\u2581Gat": 62, "April": 2628, "iwan": 505, "\u5168\u8baf\u7f51": 19, "Trang": 243, "igentum": 30, "Prospect": 677, "1366": 15159, "Hent": 144, "ramble": 446, "\u2581moro": 3, "zdob": 5, "aidhean": 1, "zdol": 5, "eyjar": 29, "\u52a0\u901f": 327382, "\u2581Pamp": 14, "ayut": 74, "\u53d1\u7535": 299918, "nws": 264, "idora": 55, "tratar": 9, "thiopi": 70, "nwe": 164, "Autonomi": 57, "nwa": 77, "\u2581millet": 1, "ulipa": 33, "nwn": 562, "nwo": 61, "asach": 41, "\u5c0a\u9f99": 1239, "\u5020": 48, "Trans": 11037, "\u2581compar": 2, "34.": 32826, "34)": 4996, "\u53d1\u751f": 2057704, "344": 11512, "345": 17452, "346": 11945, "347": 12463, "340": 33193, "341": 9017, "342": 11596, "343": 11062, "\u773a": 52181, "348": 12433, "elektron": 21, "\u9ebf": 1433, "\u60ca\u559c": 134758, "@": 229463, "\u2581Vice": 49, "omoo": 106, "capul": 194, "incha": 289, "owerful": 1112, "PKK": 103, "inchi": 153, "34]": 118, "straat": 1087, "\u2581Booking": 17, "\u5537": 4035, "ceros": 624, "armari": 19, "RGENT": 70, "anfang": 350, "straal": 4, "\u2581aka": 17, "rskiego": 4, "nait": 27, "\u2581aki": 14, "\u2581ako": 8, "direct": 4300, "nais": 699, "nail": 726, "(41)": 1231, "naio": 68, "\u2581aku": 4, "naik": 73, "udza": 14, "naia": 47, "ebbi": 209, "anpur": 105, "kuu": 91, "kut": 845, "kus": 783, "kur": 966, "liberty": 231, "kup": 833, "kun": 2582, "kum": 512, "kul": 590, "kuk": 232, "kuj": 64, "kui": 789, "\u2581hull": 5, "kud": 110, "kub": 116, "prata": 18, "prato": 19, "\u2581Clem": 46, "GARA": 411, "beck": 1800, "\u2581Cler": 13, "\u2581tourist": 17, "\u5178": 1267950, "Konferans": 2, "mokes": 19, "delle": 805, "Dames": 92, "\u7740\u7528": 14068, "-07-14": 589, "\u2581Kirch": 27, "museums": 86, "\u2581Kaya": 38, "ect": 1823, "procedure": 524, "ecs": 202, "Damen": 30, "\u2581Scen": 17, "prints": 306, "utilisateur": 5, "\u2581Contain": 13, "\u8c89": 6873, "\u2581Stan": 84, "advisor": 323, "\u2581oct": 5, "\u578f": 42, "spektive": 1, "\u2581Stam": 16, "3159": 702, "lapur": 39, "\u2581Combi": 27, "\u2581Stap": 3, "\u2581Honor": 39, "It": 32618, "nemend": 4, "\u65c3": 5707, "\u8d48": 30739, "\u2581Stau": 15, "koncert": 1, "\u2581Vibra": 32, ":10:00": 2223, "4/2020": 4, "excellent": 647, "saben": 10, "Tallinna": 7, "\u5c11": 2955377, "\u55e3": 90144, "kamers": 1, "\u7684\u4e00\u79cd": 570869, "Orion": 840, "\":15": 1, "kamera": 27, "\u2581Bold": 28, "\u2581Marks": 30, "\u2581Markt": 15, "estate": 965, "hemoglobin": 154, "7.80": 5726, "keer": 157, "gadgets": 48, "\u2581Marka": 9, "\u7a92": 37204, "\u2581Marke": 1, "ferie": 11, "\u691b": 445, "gjet": 2, "\u2581Marko": 22, "skandinav": 3, "ONI": 1032, "ONO": 3459, "\u2581vz": 14, "\u2581vu": 12, "ONA": 1879, "finalist": 67, "ONG": 1546, "\u2581vr": 43, "ONE": 15408, "amakh": 24, "\u8e35": 31222, "\u2581vi": 425, "\u2581ve": 91, "fficac": 303, "\u2581va": 83, "ONT": 447, "ONU": 1494, "\u2581odd": 11, "RZE": 69, "description": 681, "\u2581odb": 19, "\u2581Ads": 13, "\u2581Fotos": 6, "\u518d\u5ea6": 161022, "ahkah": 3, "ahkam": 4, "\u2581Woll": 10, "\u2581Houses": 5, "salsa": 326, "Kommen": 4, "\u2581Wolf": 180, "parallel": 799, "RZY": 28, "zzini": 243, "avatra": 4, "amil": 162, "amin": 538, "amik": 18, "\u2581pellet": 1, "amid": 521, "\u676f": 857636, "\u2581\u6fb6": 90, "Beyond": 6943, "amis": 185, "amir": 310, "\u771f\u7684\u5f88": 159004, "\u4e0b\u4e00\u6b65": 82872, "Sportiv": 236, "Sklad": 2, "\u918d": 10184, "\u2581Soda": 10, "eird": 555, "koulu": 26, "623": 6887, "\u2581Meteor": 65, "\u851a": 101560, "szter": 45, "reppen": 8, "\u9187": 414407, "\u2581Polska": 1, "\u2581Bandung": 1, "ottam": 34, "\u5c0f\u6e38\u620f\u5728\u7ebf\u73a9": 18, "ielkopolski": 15, "\u2581Polski": 1, "\u51b4": 1878, "\u2581Trends": 5, "antverk": 4, "diseases": 460, "\u7d20\u8d28": 704711, "zemlj": 5, "uesca": 28, "3.1.1": 4013, "\u2018\u2018": 2449, "\u2581Zve": 3, "\u2581bibliot": 2, "\u2581Zvi": 6, "\u2581Ne": 463, "\u685c": 4317, "dormitorio": 1, "\u2581Jun": 200, "\u2581Juo": 1, "\u2581Jul": 41, "\u2581Jum": 30, "\u2581Juk": 19, "\u2581Juh": 15, "MUD": 1093, "\u2581Jug": 21, "\u2581Jud": 134, "\u2581Kanada": 2, "uvent": 154, "toare": 89, "uveni": 21, "\u2581\u6c38": 41606, "\u2581Juu": 3, "\u2581Jur": 61, "\u2581Jus": 21, "MUC": 562, "Mulle": 1033, "\u6b86": 39842, "reservat": 57, "taldea": 17, "\u510d": 175, "\u2581Siva": 11, "bracht": 40, "\u2581Ng": 99, "arijuana": 58, "\u2581vaccin": 6, "\u7827": 22923, "\u5ba6": 63621, "rejt": 4, "pomoc": 10, "aakko": 63, "\u2581Scu": 62, "rejo": 234, "\u2581Electronics": 19, "budaya": 8, "reje": 12, "\u561e": 8301, "independence": 228, "inou": 130, "inov": 146, "\u81c2": 302345, "plats": 67, "associate": 577, "cibi": 34, "inox": 433, "cibo": 76, "\u7b51": 346975, "\u2581kilometr": 1, "\u8d70\u4e86": 244158, "inoa": 99, "inom": 248, "inoj": 26, "\u8d24": 503511, "schep": 8, "Supervisor": 683, "tolerans": 12, "Photo": 38111, "\u626b": 630689, "days": 4869, "bija": 27, "CIPA": 694, "Chakra": 441, "portal": 413, "\u2581Xer": 27, "RIER": 236, "RIES": 568, "nyheter": 3, "\u5b8c\u74a7": 2313, "\u2581Mongol": 6, "WORK": 1878, "ayna": 78, "milito": 4, "Notification": 454, "institutioner": 1, "ayni": 27, "\u2581Sce": 8, "\u5934\u53d1": 273106, "\u2581Course": 54, "\u2581\u6d5c": 249, "atapult": 139, "oothing": 72, "\u2581Muri": 16, "\u2581\u6d63": 1213, "TRADI": 253, "\u5524": 399307, "attach": 476, "moka": 76, "punkten": 3, "\u8d2d\u7269": 443706, "attack": 1696, "TRADE": 537, "enthouse": 396, "\u2581Aktie": 2, "\u5148\u7aef": 89475, "\u7236": 707490, "\u2581\u6d7c": 14, "kanta": 11, "\u2581CAMP": 46, "\u8340": 44826, "\u2581ferro": 3, "ASE": 1637, "opron": 46, "telecomunica": 4, "pendientes": 1, "widgets": 123, "\u2581success": 11, "\u4e0b\u5730": 18445, "itive": 936, "\u610f\u6b32": 12477, "forbundet": 3, "kontakte": 88, "compreen": 6, "\u7f68": 1414, "\u60ed": 31813, "anjem": 1, "\u8872": 5649, "\u2581Nagy": 23, "\u2581Titan": 42, "bridge": 3294, "adhu": 66, "DUI": 353, "antidad": 4, "\u8131\u6bdb": 17318, "2-0": 13148, "efectu": 78, "\u2581health": 31, "\u2581Holland": 40, "adha": 274, "2-1": 16484, "ible": 2443, "kupil": 3, "ibli": 896, "DUL": 146, "adhi": 171, "seminar": 336, "DUM": 263, "\u2581Coco": 280, "\u2581shape": 37, "\u2581Cock": 48, "2-4": 32503, "\u2581Coch": 28, "2-5": 21031, "deres": 108, "\u61ac": 42563, "kizun": 2, "derek": 15, "\u53d1\u7684": 299185, "/05/2015": 1, "2-8": 7884, "\u2581Photograph": 9, "Convert": 1773, "DUC": 367, "\"...": 829, "kosten": 10, "\u51cc": 397366, "Situat": 23, "\u2581\u6d93": 367, "\u2581\u6d94": 82, "\u6ede": 244172, "\u540c\u68b1": 81, "psicologi": 3, "Bound": 1525, "ebla": 68, "cambio": 25, "\u2581Exten": 11, "rancis": 42, "::::::": 90, "pozorn": 1, "\u5efe": 471, "550.": 902, "larni": 6, "%100": 839, "Dopl": 1, "larna": 64, "\u2581sus": 11, "dupa": 305, "leit": 182, "mbili": 160, "sson": 4211, "5506": 866, "5505": 641, "5500": 27252, "\u2581ergo": 2, "\u2581Baza": 10, "54%": 11803, "tropis": 669, "54)": 4123, "\u82af": 224404, "542": 7618, "543": 5814, "studium": 45, "541": 7725, "546": 9681, "547": 7971, "544": 8353, "545": 9398, "tropic": 270, "548": 9549, "549": 8134, "\u5fbd": 212341, "/04/2015": 6, "avasta": 15, "deler": 44, "ertifikat": 2, "\u2581Bazi": 1, "spurn": 11, "eitai": 121, "ben": 10252, "haith": 63, "54]": 721, "/04/2014": 4, "\u2581fui": 3, "\u2581fun": 71, "\u2581fuo": 1, "\u2581ful": 13, "\u2581fum": 4, "6565": 1093, "\u2581drei": 2, "6567": 512, "6566": 771, "Mediterranean": 321, "6560": 897, "6563": 319, "6562": 402, "\u6df1": 3727585, "beb": 151, "hofer": 777, "angere": 57, "\u9576": 144561, "\u2581fur": 33, "\u2581fus": 5, "leie": 4, "\u2581fut": 16, "\u2581YO": 206, "hagan": 66, "LIDE": 424, "1-20": 8641, "\u2581YA": 244, "rungan": 4, "\u2581YB": 245, "LARGE": 199, "\u258121-7": 2, "\u6bdb\u7247": 1936, "vkov": 42, "\u2581YU": 126, "Formula": 2245, "bee": 3475, "muyor": 1, "nissen": 45, "mut": 1415, "SEARCH": 792, "\u2581Yi": 336, "htan": 71, "mus": 2973, "mur": 2059, "\u2581Ye": 195, "\u258100:06": 2, "\u258100:05": 7, "\u258100:04": 6, "\u2581Ya": 448, "\u258100:01": 3, "muz": 310, "\u5072": 2460, "ruusu": 4, "finger": 1497, "siklopedi": 3, "\u2581Yu": 313, "\u70b8": 517362, "mun": 1820, "mui": 164, "\u2581Yp": 18, "muk": 110, "\u2581Yr": 7, "rimu": 64, "maisen": 5, "Standard": 26615, "adilla": 222, "rime": 406, "rslan": 147, "rima": 385, "\u2581HDR": 182, "rimo": 484, "statistik": 3, "rimi": 74, "045.": 572, "candidat": 29, "fault": 1279, "elm": 861, "Immobilie": 31, "Hiru": 180, "tnings": 2, "\u2581Tarif": 4, "Osman": 544, "\u2581appell": 1, "0458": 518, "\u65b9\u5411": 1268057, "0456": 383, "\u2581juridi": 1, "elewa": 5, "verka": 18, "\u2581namen": 1, "borden": 1, "\u2581basili": 3, "Westfalen": 126, "yrki": 49, "yrkj": 29, "ruar": 25, "heber": 25, "2018/03/": 10, "ele": 6136, "\u2581names": 2, "\u2581\u6b66": 62184, "TVT": 474, "\u2581Grigor": 14, "\u2581food": 27, "eriya": 74, "TVS": 1976, "TVR": 316, "TVO": 98, "ely": 1795, "TVI": 183, "\u2581psycho": 4, "\u671d\u9c9c": 303565, "TVE": 177, "AUTOMATI": 184, "\u2581foot": 28, "trine": 362, "\u2581Holly": 38, "\u5b69\u5b50\u7684": 403984, "\u2581Zie": 10, "\u2581Zik": 4, "\u2581Zin": 97, "\u2581Zil": 24, "\u504e": 18119, "\u2581Zir": 9, "\u2581Zip": 134, "\u2581Ziv": 9, "19:21": 145, "\u2581Zit": 1, "\u7560": 2624, "maiset": 1, "\u51ac\u5b63": 190315, "\u2581Acer": 1878, "799.": 843, "\u7528\u9014": 332430, "n": 617997, "Praha": 167, "\u25811250": 131, "vuta": 6, "vuto": 7, "alisin": 49, "7999": 789, "vuti": 5, "Madagascar": 239, "\u6682": 462794, "\u5185\u88c5": 16123, "pathologi": 63, "tress": 1560, "accessories": 187, "8%25": 85, "\u25812:0": 50, "raudon": 6, "vrije": 18, "Tele": 6079, "9;&#3": 3, "\u4e2d\u6bd2": 155078, "\u2019": 768254, "\u9244\u9053": 561, "anatoli": 5, "2017/05/": 17, "\u2581Blatt": 5, "\u56a2": 122, "\u25811977": 18009, "EATHER": 157, "\u2581Maestr": 1, "anteil": 1, "\u6bb4": 59187, "\u9646\u7eed": 182331, "kompas": 8, "\u4ecb\u7ecd\u4e86": 339820, "Springer": 2402, "\u63a5\u89e6": 620762, "peaks": 308, "\u2581Emp": 182, "TACT": 246, "\u90ce": 558801, "\u2581Emi": 9, "\u2581Emm": 35, "\u5bd4": 2720, "\u2581Emo": 48, "\u64d6": 116, "Olen": 118, "TACA": 663, "\u2581Emb": 36, "dado": 114, "dadi": 108, "7332": 398, "dade": 595, "\u8fdd": 419424, "dada": 711, "7338": 408, "Manager": 8757, "\u2581Motiv": 13, "avolo": 67, "Utility": 1080, "\u25814/1": 19, "gitur": 10, "lantik": 9, "technikai": 1, "graden": 6, "grades": 219, "grader": 37, "gende": 59, "/230": 1043, "kanin": 21, "elayo": 50, "\u2581Baseball": 15, "kania": 32, "\u2581university": 12, "anyo": 405, "\u6d32": 737445, "gavo": 15, "anyi": 595, "eyqe": 1, "anye": 941, "wissen": 66, "anya": 630, "\u2581Kult": 17, "unter": 538, "\u2581Hjerte": 2, "oulevard": 282, "unted": 509, "Magal": 248, "plina": 8, "1111111": 278, "eigene": 21, "azken": 10, "ladda": 22, "Slovak": 105, "ehdi": 152, "\u53d1\u73b0": 2815115, "\u65f6\u4ee3": 1175877, "\u258100:": 33, "999.": 3982, "\u2581007": 1270, "\u2581004": 881, "\u2581002": 1911, "\u900f": 1058082, "\u2581000": 6108, "9999": 7375, "9998": 896, "999;": 249, "9990": 725, "52": 162053, "9995": 808, "9997": 438, "9996": 537, "SCM": 3053, "Edinburgh": 775, "SCO": 4140, "skapa": 8, "SCI": 117082, "SCH": 4778, "ERMAN": 452, "\u6fb3\u5927\u5229\u4e9a": 259171, "SCE": 2622, "\u9aa8": 1894261, "\u2581Mille": 24, "SCA": 2001, "SCC": 1657, "fodr": 19, "umen": 293, "CONNECT": 848, "SCU": 595, "\u535a\u5b98\u7f51": 33, "skape": 2, "SCS": 1257, "SCR": 4206, "\u6741": 33, "morz": 62, "zyko": 7, "5*": 3676, "silva": 127, "damba": 45, "\u2581Optim": 54, "\u2581Szy": 5, "pflanz": 6, "Crash": 1249, "\u5761": 629093, "\u652f\u4ed8\u5b9d": 103610, "FENG": 689, "22-23": 2291, "zbir": 3, "attacks": 239, "zyki": 5, "\u84ec": 230354, "INHO": 124, "\u51fa": 11718552, "Weitere": 6, "silvi": 55, "znacz": 1, "ussa": 691, "duke": 309, "\u2581Template": 34, "aha": 991, "aber": 1395, "ferd": 117, "ppe": 1088, "ementeri": 21, "feri": 307, "ppi": 2299, "ahi": 921, "ppo": 134, "aho": 267, "[]": 10759, "fern": 342, "systemet": 3, "ppr": 298, "fers": 257, "ppp": 2029, "ussu": 155, "fert": 419, "ppu": 103, "ppt": 8944, "ussy": 399, "abel": 1982, "ahy": 212, "abej": 5, "abei": 135, "\u2581subsidi": 2, "vodn": 6, "vaccination": 44, "\u4e0b\u534a": 67408, "\u4e0b\u5348": 321693, "voda": 67, "00-400": 4509, "Firenze": 281, "arjeta": 10, "Break": 5167, "\u2581Other": 128, "vody": 9, "vodu": 7, "moro": 320, "Congratulations": 138, "italien": 21, "26-27": 1407, "leikar": 2, "\u9f50": 1397453, "\u2581stations": 1, "kambin": 1, "oeste": 56, "[2": 3622, "[1": 3836, "\u2581Sza": 4, "attr": 2022, "malaysia": 39, "Provence": 542, "\u7701\u653f\u5e9c": 190229, "astgoed": 3, "\u5ddd\u533a": 27238, "[\"": 600, "atte": 561, "['": 3366, "mord": 153, "atta": 347, "\u2581reaction": 4, "\u5546\u7528": 76827, "\u5378": 246740, "\u2581Sze": 4, "[/": 5765, "atti": 1084, "\u2581correspond": 21, "2439": 883, "2438": 1209, "vaskul": 2, "2433": 939, "2432": 1273, "2431": 956, "2430": 3662, "2437": 854, "2436": 1298, "2435": 1053, "2434": 940, "0.60": 12633, "0.61": 8579, "0.62": 8185, "sometime": 438, "0.64": 8987, "243.": 2071, "0.66": 6909, "0.67": 8143, "0.68": 7764, "0.69": 7556, "isista": 2, "\u2581Afri": 6, "regime": 226, "yyli": 8, "\u2581020301": 3, "\u68a0": 252, "\u7740\u7269": 9332, "\u2581Maggi": 92, "cirkus": 1, "udio": 157, "papers": 697, "implant": 184, "company": 3938, "\u2581difficult": 47, "picture": 2940, "\u4f7f\u547d": 202155, "rakam": 10, "\u548c\u6b4c\u5c71": 2686, "football": 1437, "ightseeing": 115, "\u2581Blues": 36, "\u8ba4\u4e3a": 2371405, "\u4e0b\u53bb": 473895, "<0xA5>": 61542, "1807": 5784, "1806": 6306, "1805": 7149, "1804": 6168, "1803": 5481, "1802": 6544, "1801": 6515, "1800": 96118, "Cuba": 645, "1809": 6334, "1808": 5959, "materiaali": 3, "vietnam": 35, "\u2581Alder": 12, "nucleo": 1146, "roh": 449, "\u6800": 21257, "roj": 842, "rok": 634, "\u2581iOS": 8595, "rom": 4690, "ron": 9907, "Cecili": 551, "rob": 673, "roc": 1205, "rod": 2293, "ndaba": 23, "rog": 1115, "rox": 1392, "roy": 2532, "roz": 798, ".09": 155856, "rop": 1370, ".04": 68062, "ror": 1106, "Tsu": 1948, "rot": 1378, ".00": 1498, ".03": 91399, "row": 6508, "\u2581CLASS": 77, "companh": 9, "\u5b8c\u7f8e": 568588, "beste": 43, "\u2581Collection": 29, "\u2581Englan": 1, "\u2581cure": 14, "\u7f3a": 1378583, "iedade": 17, "tanke": 18, "\u62c7": 67700, "iedy": 27, "tillat": 61, "tanko": 32, "sponsors": 42, "tillas": 25, "ruske": 6, "Chris": 10842, "\u2581Indonesi": 2, "tillad": 11, "tkun": 8, "\u2581Cristo": 17, "gatta": 101, "\u7684\u670d\u52a1": 448739, "Adidas": 2090, "\u52e7": 161, "Danger": 931, "gatti": 418, "metod": 92, "rinkle": 359, "agara": 627, "\u610f\u601d": 418730, "\u5185\u8535": 58, "\u2581Slots": 1, "Novo": 972, "\u2581trouble": 20, "\u4f05": 39, "kapel": 24, "ENZI": 66, "9.22": 2300, "trend": 867, "\u2581penta": 6, "ymph": 962, "erler": 20, "9.21": 2490, "Nova": 4683, "erlei": 165, "trent": 61, "\u661f": 3163949, "9.26": 2413, "\u2581culture": 12, "\u2581\u5f69\u795e": 21, "9.25": 3844, "Far": 7364, "Quy": 107, "vadlo": 18, "02.02": 2420, "\u8131": 1332908, "axial": 654, "Que": 4148, "Math": 6774, "goes": 1937, "Qui": 5232, "\u2581Discover": 34, "Mati": 593, "\u563f": 137532, "uajt": 1, "\u2581Evi": 36, "kama": 288, "fabriek": 13, "kame": 148, "\u2581Evo": 67, "\u2581Eva": 151, "kami": 891, "kamo": 100, "\u2581Eve": 139, "CASTELL": 30, "uaje": 10, "kamp": 424, "witch": 1219, "kamu": 102, "\u2581Evr": 10, "Untitled": 268, "scuola": 45, "oodles": 426, "\u2581Manipul": 8, "onservation": 794, "\u2581senge": 1, "\u6c38\u4e45": 141398, "1,0.6": 18, "\u86f4": 2631, "\u2581saba": 3, "Panasonic": 2685, "\u4e0d\u9519\u7684": 221519, "\u2581sabi": 3, "\u2581had": 66, "\u2581haf": 2, "\u2581hag": 1, "3809": 469, "\u4eba\u529b\u8d44\u6e90": 321977, "\u2581hab": 10, "qari": 28, "3805": 561, "problematic": 126, "3807": 652, "\u2581hao": 90, "3801": 696, "3800": 25802, "\u2581haj": 2, "\u2581\u674e": 267571, "\u2581popular": 17, "\u2581CARR": 10, "\u2581haw": 6, "\u4e2d\u6751": 41263, "\u2581har": 96, "\u8816": 2821, "1,0.1": 77, "crisis": 491, "prem": 138, "ando": 6947, "andi": 4926, "preh": 35, "undan": 541, "\u2581\u6769": 11, "\u7ba1\u7406\u8005": 114897, "39,99": 128, "anda": 8518, "prec": 584, "Nikon": 1927, "Appen": 99, "prey": 262, "qara": 107, "pret": 1138, "prev": 456, "prep": 783, "today": 3659, "rocurement": 268, "\u2581Publishing": 6, "8/2017": 1, "\u2581Chy": 12, "prawi": 13, "\u8548": 6448, "garantie": 6, "\u4e2d\u6709": 332225, "chuan": 2102, "\u2581Chr": 34, "\u2581Chur": 15, "\u2581Cho": 142, "\u2581Chi": 204, "sulfur": 511, "\u2581Che": 588, "\u4e2d\u671f": 163654, "\u5ddd\u5d0e": 7862, "\u2581Independent": 46, "\u2581hierarch": 3, "Antwerpen": 53, "\u5de3": 469, "recrut": 6, "\u6d41\u51fa": 76882, "etamine": 74, "ovosti": 21, ":\"\"}": 5, "Kanon": 623, "figure": 1353, "Ingredients": 134, "gogor": 9, ".0.0.1": 680, "svall": 35, "\u9513": 493, "\u7292": 6922, "mungkin": 1, "ecundari": 27, "gehol": 5, "siko": 18, "esthesi": 402, "\u2581Gonzalez": 5, "soleil": 131, "klic": 45, "azzett": 249, "ndante": 29, "abaab": 8, "OKER": 1189, "Demand": 1169, "regeln": 3, "woff": 86, "\u4fc4": 435494, "\u2581masturba": 1, "\u7518\u8083": 315544, "REST": 1494, "RESH": 536, "RESO": 110, "\u2581Chrome": 172, "urquoise": 69, "\u2581Josh": 145, "Exclusive": 467, "runtime": 351, "\u9367": 142, "\u70e6": 387501, "iteste": 9, "\u2581Jose": 55, "uteri": 260, "\u5927\u4eba\u6c17": 206, "denken": 38, "houder": 5, "\u2581acer": 55, "\u998d": 27459, "\u2581confess": 7, "Fan": 7927, "128": 92951, "\u6709\u4e86": 568893, "\u2581Mikro": 15, "\u2581acel": 1, "\u4e18": 419426, "\u2581tro": 11, "\u7684\u8868\u73b0": 252705, "legge": 92, "hankk": 1, "lebel": 4, "\u2581Crem": 20, "Rules": 1123, "\u6d41\u52a8": 459088, "hanke": 64, "leggi": 45, "civil": 789, "ustifica": 1, "\u2581Carbon": 42, "Throne": 620, "\u2581Foo": 79, "ATAL": 90, "ATAN": 218, "ncendi": 47, "\u2581Infin": 76, "ATAC": 149, "ccini": 631, "ATAG": 56, "\u2581Cred": 9, "esnis": 1, "Ultimate": 2648, "iazza": 91, "\u5ddd\u5e02": 42920, "ATAR": 268, "ATAS": 99, "ATAT": 112, "uzna": 32, "betreu": 1, "kombin": 9, "\u2581maji": 2, "\u2581Crea": 34, "\u2581maju": 3, "\u2581elimin": 8, "ouverte": 7, "\u2581Puch": 6, "CNC": 10292, "\u507c": 20, "torce": 18, "Clock": 2037, "eningen": 28, "torch": 257, "\u590d": 3025414, "703.": 811, "\u2581Pisa": 5, "7030": 1051, "\u2581results": 5, "7035": 471, "7037": 453, "7038": 466, "ypress": 511, "\u679a\u76ee": 179, "UGH": 363, "UGO": 906, "\u2581Luca": 49, "\u53a6": 94218, "tensions": 55, "UGA": 843, "\u2581Luch": 22, "\u2581Luci": 100, "UGE": 351, "\u2581Luck": 28, "\u2581discipl": 2, "reiste": 2, "\u2581Investor": 2, "UGU": 129, "she": 10435, "eagle": 1112, "\u89c2": 3439821, "shf": 422, "ithub": 489, "brett": 104, "ellut": 21, "escue": 1368, "\u77e5\u4eba": 11739, "gis": 1145, "ieprz": 9, "Maschine": 151, "netic": 1648, "\u77e5\u4e8b": 11319, "Battery": 1101, "kereta": 19, "IMIN": 161, "Boca": 391, "netim": 7, "\u5458\u5de5": 916011, "wanya": 11, "\u2581echo": 883, "\u2581echi": 1, "IMIZ": 93, "-115": 2870, "-116": 2211, "-111": 3009, "-110": 8754, "-113": 2109, "-112": 2679, "-11-": 3812, "-11)": 1958, "\u2581Kardashian": 5, "issime": 19, "Altro": 43, "Lido": 140, "\u2581ihe": 11, "\u5d24": 2915, "\u2581iha": 1, "ygge": 14, "\u2581iho": 8, "vostr": 17, "\u87b3": 17719, "gid": 646, "augos": 2, "Disclaimer": 74, "grunn": 29, "alnut": 181, "udere": 10, "grund": 102, "gestalte": 12, "grayscale": 15, "\u2581ferment": 4, "cardi": 762, "\u2581dol": 4, "lauan": 6, "\u2581computer": 40, "\u7768": 9113, "havne": 5, "Analis": 10, "\u2581robust": 7, "\u2581doc": 23, "cards": 939, "\u5f7c\u6c0f": 593, "\u2581Pali": 24, "ADV": 2413, "elleni": 138, "\u2581Palm": 246, "\u2581Pall": 13, "\u2581Palo": 40, "\u2581Pala": 73, "klis": 16, "\u2581Pale": 24, "\u2581dog": 31, "Attraction": 184, "\u2581(66)": 175, "follar": 1, "recursos": 5, "\u2581Browser": 23, "\u2581Palu": 1, "\u2581+3": 331, "ietis": 139, "\u2581doz": 1, "velje": 3, "velja": 2, "OOOO": 212, "sciences": 914, "ngri": 128, "bolj": 1, "tibu": 26, "mination": 949, "\u2581Continu": 24, "\u4e2d\u6587": 1105691, "ingapura": 61, "icot": 384, "ilitaire": 46, "\u4e08\u592b": 240604, "lus": 4214, "\u2581Command": 209, "icon": 9086, "-11-11": 726, "annul": 212, "\u5c65": 152887, "rsquo": 149, "\u4e2d\u65ad": 84773, "pengs": 3, "proud": 671, "-11-13": 966, "\u2581\u65b0": 187721, "-11-12": 941, "\u4e2d\u65b0": 43390, "\u7977": 70866, "ADB": 1024, "annut": 12, "annus": 117, "alstyb": 1, "\u56fe": 4321305, "aaaaaaaaaaaaaaaa": 42, "oiselle": 293, "tron": 6141, "trol": 366, "cheat": 344, "taimi": 14, "evna": 81, "ADA": 5249, "cheap": 458, "evne": 21, "Research": 26330, "\u7410": 114757, "\u5f7c\u6b64": 241528, "spaces": 519, "-11-18": 910, "tros": 318, "tror": 160, "trop": 692, "easca": 49, "trou": 1586, "tky": 160, "eripher": 646, "panon": 21, "kyou": 789, "\u2581\u6c5f\u897f": 29101, "\u5730\u65b9": 1433359, "divisi": 46, "\u25812,000": 26, "oyin": 206, "\u7f51\u5740\u662f\u591a\u5c11": 39, "Mimo": 316, "Louis": 9454, "jazz": 1401, "luh": 95, "publikas": 13, "jazd": 28, "\u4ed7": 146459, "lui": 764, "korot": 25, "\u2581delica": 2, "wnym": 7, "flickr": 219, "omunicazione": 20, "\u65f1": 283041, ".341": 461, "\u2581grass": 26, "blomst": 1, ".343": 358, "moeder": 6, "xxxxxxxxxxx": 216, "DKA": 292, "\u6599\u7406": 85564, "1920": 67793, "1921": 38415, "1922": 38074, "1923": 39927, "1924": 42843, "1925": 47440, "1926": 49153, "1927": 60724, "1928": 59093, "1929": 60095, "Todos": 87, "\u2581Regi": 2, "\u6bdb\u7a74": 100, "otlar": 8, "diode": 440, "menistan": 6, "phosphate": 1335, "\u68f5": 135761, "\u5965\u7279\u66fc": 32485, "tegne": 2, "ECHA": 408, "\u2581Angel": 428, "\u5148\u751f": 1204907, "Anadolu": 57, "\u83ca": 260130, "hitaji": 2, "ECHO": 978, "\u2581assets": 3, "ECHT": 53, "TIKA": 28, "DOWNLOAD": 210, "\u845b": 246566, "timento": 16, "\u2581Anger": 16, "klage": 32, "matricul": 8, "quier": 448, "999999": 2133, "cepto": 12, "\u2581Toki": 50, "tikin": 15, "tikim": 3, "\u2581kiya": 2, "\u2581ember": 2, "\u2581Labor": 15, "\u2581#00": 50, "\u2581#01": 17, "\u6545\u4e8b": 1238308, "regler": 7, "Decision": 1672, "period": 1820, "\u2581Czer": 5, "\u2581Lega": 9, "\u2581Olymp": 5, "bildu": 3, "turkey": 111, "Turbo": 7724, "Porcel": 295, "\u2581906": 89, "\u2581907": 151, "augum": 2, "\u2581902": 135, "\u2581900": 650, "\u2581\u636e": 158801, "\u258190,": 27, "\u258190-": 128, "\u5bb6\u56ed": 157589, "\u258190%": 668, "direction": 1807, "chova": 54, "erugia": 123, "nusu": 12, "\u6ae4": 9, "case": 7841, "casa": 335, "caso": 94, "cash": 1398, "cast": 5585, "terrane": 236, "furb": 52, "\u62f5": 71, "fungwa": 3, "\u9a7a": 3013, "aasje": 2, "Cymr": 56, "\u2581Argentina": 58, "\u6e82": 16, "\u6982\u8981": 40872, "\u4fc3\u9500": 120607, "\u2581neck": 9, "Glyc": 1198, "8400": 5738, "gumas": 5, "verlening": 3, ".06.2016": 1, "8406": 338, ".06.2014": 2, "Ubu": 84, "acess": 30, "\u5ea2": 121, "author": 1640, "konduk": 1, "fender": 109, "9810": 732, "9812": 726, "\u25811990-": 1093, "\u63b4": 3503, "gadget": 485, "espal": 44, "\u89e3\u7b54": 173759, "status": 1543, "beleid": 10, "\u6625\u65e5": 24285, "\u7e4d": 90, "\u98ce": 5825148, "\u53d4": 417053, "statue": 171, "\u2581protection": 6, "\u2581felic": 1, "\u2581secund": 1, "nsyn": 65, "DIMENSION": 202, "relaterade": 1, "ckim": 18, "ckie": 635, "ckig": 4, "justifi": 88, "suchen": 73, "gamis": 16, "masdan": 2, "bodies": 622, "gamit": 33, "Pink": 4370, "\u2581zrobi": 5, "\u6208": 311905, "\u2581assist": 12, "Raya": 997, "polisi": 6, "polish": 297, "\u2581Sequ": 23, "metamorfo": 1, "\u2581December": 26, "starke": 16, "druck": 61, "\u5228": 43262, "\u2581Brazil": 22, "Pigment": 437, "<0x95>": 105552, "feminism": 80, "\u2581Linden": 22, "meste": 25, "Selama": 6, "0850": 312, "mesto": 135, "gemis": 5, "mesti": 58, "mestu": 4, "\u89d2\u5ea6": 391283, "attual": 1, "765.": 1003, "Bendr": 11, "mesty": 3, "acute": 2816, "patrick": 587, "inate": 347, "dete": 181, "inata": 670, "omatsu": 166, "obzor": 1, "tower": 986, "\u2581restaurant": 3, "entato": 113, "mojo": 132, "simulator": 103, "\u6ce2\u52a8": 184336, "entata": 222, "Master": 24807, "Besos": 9, "\u6c17": 8645, "biznes": 4, "+07:00": 4, "benta": 59, "frecuen": 3, "\u65b0\u5f00\u4f20\u5947": 1, "hipster": 35, "rzep": 1, "0/80": 1286, "etnost": 1, "Class": 10233, "MEDIUM": 874, "schip": 31, "dicen": 28, "geografi": 12, "hormon": 35, "schie": 79, "\u2581baka": 1, "\u2581Navarr": 9, "schia": 170, "\u2581Konstruk": 3, "+01:00": 12, "tyske": 2, "\u5f61": 946, "\u5386\u53f2": 1936196, "\u2581department": 7, "\u2581\u60a8": 44994, "culata": 1360, "emesl": 3, "\u2581chun": 28, "\u5730\u677f": 213676, "culate": 531, "\u2581chur": 10, "\u2581chut": 1, "\u2581pick": 46, "\u767b": 1065751, "\u2581chuy": 2, "Anand": 553, "nyone": 1301, "siente": 5, "nyong": 67, "Przyj": 1, "\u2581pesti": 1, "\u2581Visual": 1006, "rues": 80, "rising": 687, "\u7114": 254, "\u821e": 1065015, "\u2581Rop": 21, "\u75c7\u72b6": 456515, "eht": 349, "24000": 5188, "ehr": 878, "\u2581Rou": 38, "\u2581Rov": 24, "\u2581Row": 69, "\u2581Rox": 82, "\u2581Roy": 133, "\u2581Roz": 41, "ertamen": 4, "Embal": 26, "ehf": 48, "\u2581Rob": 189, "\u2581Roc": 84, "\u2581Rod": 152, "\u2581broke": 3, "betaling": 10, "\u2581Bli": 35, "ehn": 540, "\u2581Roi": 10, "ehl": 1034, "\u2581Rok": 38, "\u2581Rol": 43, "\u2581Rom": 63, "\u2581Ron": 226, "\u2581Roo": 68, "\u2581Mirror": 79, "\u2581Request": 61, "\u2581HOME": 173, "astma": 9, "\u25811100": 409, "zauber": 20, "incisi": 36, "\u2581penetra": 2, "98/": 3652, "Subaru": 322, "enial": 354, "\u2581Arran": 122, "Burundi": 102, "\u2581Rehab": 6, "mortiz": 48, "haosf": 1, "20.30": 1086, "4364": 674, "4367": 417, "Adolescent": 119, "\u2581remi": 1, "dysh": 96, "feliz": 38, "\u65b9\u5f62": 114621, "4368": 694, "uiesc": 8, "0532": 2102, "18-20": 4817, "ekelo": 24, "99.00": 4263, "\u7b23": 9, "3108": 1282, "3104": 1012, "deserve": 382, "3106": 1015, "\u50aa": 125, "3100": 26702, "3101": 1417, "3102": 1335, "3103": 1429, "Dark": 7399, "anggar": 28, "310.": 1498, "\u2581HAR": 104, "\u2581HAS": 33, "Darb": 334, "\u75bc": 524001, "EIGE": 153, "Jaguar": 834, "\u86c6": 10030, "finale": 103, "rousers": 212, "\u2581combust": 9, "\u2581Luxembourg": 4, "\":{},\"": 1, "0321": 601, "entano": 154, "\u815f": 13, "4041": 727, "0323": 596, "\u65b9\u5f0f": 2534392, "THOR": 431, "vestiging": 3, "\u2581Sparta": 24, "29.00": 5618, "\u8bba\u575b": 515430, "directory": 472, ":))": 485, "-688": 515, "\u7000": 41, "\u9785": 13499, "anggal": 5, "4048": 980, "Freelance": 174, "konsekvens": 1, "stellbar": 3, "Schaum": 67, "\u2581pede": 1, "kicks": 113, "tarra": 41, "sipuli": 2, "engaluru": 20, "gunak": 1, "\u2581pedi": 6, "\u2581\u817e\u8baf": 8362, "ikonomia": 10, "\u58bd": 21, "vazu": 239, "erusalem": 431, "vazi": 18, "iseks": 2, "unitate": 1, "\u673a": 7121465, "tlantique": 152, "angunan": 37, "palvelut": 2, "Produs": 2, "\u6574\u4f53": 853432, "prende": 13, "19:58": 96, "19:59": 97, "19:56": 99, "19:57": 111, "19:54": 84, "19:55": 332, "19:52": 79, "19:53": 75, "19:50": 1023, "\u77e5\u540d": 557522, "AHA": 1218, "\u2581filters": 2, "AHD": 435, "kvartir": 4, "AHI": 490, "AHO": 193, "AHL": 403, "\u2581Torr": 10, "\u5e74": 36786646, "AHU": 107, "\u2581Tort": 31, "labur": 28, "638.": 1103, "\u658e": 1488, "6387": 428, "\u2581Futter": 1, "ajov": 4, "Easy": 6796, "East": 8796, "brille": 22, "flict": 708, "sug": 157, "suf": 246, "sud": 449, "sub": 12193, "\u8c13": 532801, "alahan": 13, "sun": 8178, "sum": 2639, "sul": 1524, "suk": 440, "acent": 76, "sut": 261, "\u7535\u5b50\u6e38\u620f": 18195, "sur": 8418, "sup": 13613, "woma": 47, "suz": 299, "\u4e3f": 2364, "tirea": 7, "okuba": 19, "posiciones": 5, "noapte": 17, "ahaya": 69, "\u2581intelle": 2, "\u2581sociale": 1, "pynt": 8, "quetas": 7, "\u2581napi": 1, "\u2581napr": 2, "\u6682\u65f6": 235602, "\u5370\u5ea6": 541471, "poche": 313, "pochi": 49, "lambi": 28, "\u2581Cart": 42, "\u2581Carr": 86, "\u2581Cars": 24, "keino": 13, "ceann": 9, "\u2581visa": 19, "\u2581Sanita": 5, "Whistle": 517, "\u2581Lebe": 5, "\u2581Tone": 25, "\u2581Card": 115, "\u2581Care": 159, "\u2581Carb": 35, "\u9016": 3831, "\u2581Caro": 10, "5135": 699, "\u62a5\u8bb0\u8005": 137389, "5133": 512, "5131": 684, "5130": 1497, "residenz": 10, "\u523b": 1256078, "salahan": 1, "ANDAR": 104, "rustic": 99, "ANDAL": 355, "\u9ad8\u6027\u80fd": 76401, "rieks": 6, "\u2581Amor": 34, "\u2581\u7f01": 105, "israel": 88, "RIDGE": 86, "verand": 562, "rydd": 2, "verano": 38, "bieta": 54, "\u7ad9\u5728": 306941, "biete": 28, "\u2581Pett": 14, "rrho": 391, "buga": 48, "\u53bb\u770b": 147298, "\u89e3\u6790": 185081, "acetil": 6, "\u2581bany": 1, "cchia": 88, "\u5c09": 149364, "49,99": 106, "\u2581dyk": 1, "ERSON": 302, "SessionId": 12, "\u2581Taxi": 25, "azul": 149, "\u2581bann": 2, "\u2581bani": 12, "\u2581bank": 34, "\u2581bane": 2, "\u2581band": 34, "\u2581bang": 36, "2017-2018": 2338, "\u2581bana": 1, "\u2581Insurance": 11, "ajti": 3, "GARDE": 139, "ajte": 1, "4.50": 10421, "\u9e35": 10381, "skabe": 8, "tepec": 72, "gekk": 8, "\u2581Amerika": 3, "\u2581millo": 1, "rivier": 67, "\u2581Miner": 16, "Kambo": 42, "\u9886\u53d6": 151546, "\u2581mille": 3, "\u4e2d\u7f8e": 90688, "\u2581reduc": 2, "adventure": 493, "Exterior": 157, "Wiki": 3146, "susah": 2, "PRODUCT": 1056, "\u997a": 80951, "\u2581Dinam": 1, "susan": 305, "chante": 92, "alkoinen": 1, "dentro": 70, "\u63d0\u9ad8": 2347284, "Samo": 370, "nanth": 277, "Bottom": 776, "xuan": 1582, "nante": 56, "\u2581Majest": 25, "\u694b": 21, "okami": 38, "okama": 50, "\u5618": 45779, "\u951a": 54906, "nants": 97, "ATORE": 22, "handlar": 1, "ATORI": 24, "\u2581bandar": 1, "stikan": 1, "\u258112.3": 930, "\u258112.2": 1074, "\u258112.1": 1313, "PPP": 63583, "\u258112.5": 791, "\u258112.4": 735, "udzie": 5, "\u258112.9": 176, "soccer": 438, "\u5142": 39, "styret": 2, "anava": 37, "aract": 158, "arach": 433, "Era": 1792, "verpack": 10, "PALA": 322, "VANA": 318, "Erk": 176, "\u2581understand": 18, "\u5066": 43, "5375": 861, "\u91d1\u66dc\u65e5": 263, "\u2581fasa": 1, "\u8ba4\u5b9a": 350677, "Ready": 3833, "\u2581fast": 102, "\u2581kny": 4, "\u2581kavi": 1, "Fabric": 2007, "anych": 48, "\u2581interface": 62, "0691": 185, "0693": 348, "loops": 191, "\u9698": 41144, "\u2581Balt": 20, "Fry": 816, "fati": 101, "\u6827": 107, "ciment": 6, "tenido": 20, "hydraulic": 348, "\u2581Nerv": 4, "hili": 273, "\u2581Dictionary": 11, "hilj": 16, "sonli": 13, "hill": 3829, "\u2581Nero": 179, "hila": 213, "\u2581Balo": 9, "5962": 395, "(76)": 680, "hild": 210, "5966": 657, "5967": 336, "\u2581Ball": 135, "plaatsen": 3, "lamina": 199, "\u2581Balc": 8, "\u5b8c\u6574": 544818, "saina": 13, "entspr": 11, "Opinion": 439, "\u2581resource": 19, "ilius": 246, ";;;": 1182, "friste": 3, "\u5409\u5229": 70711, "\u2581Vej": 1, "Blank": 1103, "Bland": 217, "oyant": 94, "\u2581Revolution": 23, "\u88fc": 862, "frigo": 5, "Blanc": 3678, "\u2581GREEN": 108, "saini": 9, "\u2581Kokk": 1, "turan": 14, "\u2581Koke": 1, "\u2581Koka": 1, "Indian": 3291, "Axel": 2091, "turas": 56, "\u2581SALA": 5, "\u2581SALE": 4, "klassis": 1, "xili": 296, ".627": 333, "story": 4865, "erreira": 461, ".622": 358, ".623": 525, "ilaya": 28, ".621": 699, "ancione": 8, "leading": 1225, "storp": 51, "storm": 1834, "gpt": 138, "\u6027\u548c": 493218, "storf": 156, "store": 5941, "\u53d1\u660e": 319683, "\u515a\u7ec4": 416902, "\u2581Rut": 20, "\u2581Vill": 24, "\u5954\u9a70": 102871, "-09-24": 541, "\u9886\u5148": 393428, "\u2581Vilk": 2, "\u5bdb": 1973, "\u2581Rus": 37, "ckert": 316, "king": 6546, "kind": 5186, "-09-26": 568, "\u84e5": 5414, "kina": 1184, "kino": 1157, "arall": 73, "\u70ed": 4509514, "kinh": 54, "kini": 566, "\u2581Lingu": 6, "i": 631913, "teva": 105, "\u2581Konstan": 4, "dfc": 74, "teve": 116, "\u2581viat": 1, "\u8d2d\u623f": 132783, "dfb": 25, "12345": 6136, "iseko": 86, "Gladiator": 269, "\u57fc\u7389": 6364, "\u5201": 49707, "allUs": 5, "motivation": 340, "mpermeabil": 3, "lepingu": 2, "\u89e3\u6563": 70124, "\u2581Colla": 14, "\u2581Colle": 79, "\u2581Gray": 68, "Sofort": 16, "\u76f4\u5230": 491623, "\u549a": 35923, "\u2581second": 65, "zija": 26, "\u85a4": 3359, "\u5224\u65ad": 433014, "\u2581Rug": 22, "pedi": 936, "\u2581market": 30, "\u2581marker": 2, "\u71ac": 203552, "\u2581microbi": 1, "TEAM": 3289, "\u2581marked": 1, "\u2581Virgi": 19, "\u2581Leucht": 2, "gill": 641, "44444": 162, "gili": 176, "alako": 3, "customize": 116, "gile": 664, "Equal": 608, "\u2581Fisch": 6, "\u52b3": 1092830, "\u89e3\u653e": 366558, "gilt": 47, "4444.": 49, "\u4e2d\u7d99": 61, "-67": 5427, "\u7ede": 96567, "phath": 24, "\u2581Kiv": 9, "\u2581Kit": 84, "\u2581Kis": 52, "dealers": 51, "\u2581Kip": 26, "ningarna": 4, "\u2581apolog": 15, "skurs": 2, "elekez": 1, "\u2581Ruk": 20, "Subscribe": 387, "iyang": 1078, "\u2581Kib": 8, "\u2581Kia": 25, "\u2581Ortho": 38, "\u2581Kio": 20, "\u2581Kin": 174, "\u2581Kim": 234, "\u2581Kil": 40, "\u2581Kik": 58, "\u2581Kij": 3, "lying": 641, "\u4efe": 8, "lebihan": 9, "ctal": 587, "Laminat": 116, "\u6c10": 9289, "\u2581Tamp": 2, "Suite": 5053, "guchi": 702, "\u7f9d": 918, "\u8bbe\u5b9a": 288333, "iez": 69, "\u2581brend": 1, "gnolo": 63, "ies": 10480, "ier": 3712, "ieu": 1720, "traut": 59, "iek": 186, "iej": 171, "iem": 848, "iel": 2262, "\u2581nju": 1, "pisan": 38, "iec": 150, "ieb": 529, "COMWWW": 2, "ief": 527, "triangle": 337, "Batch": 543, "maailma": 6, "abing": 67, "\u56d7": 3726, "\u7ecd": 292185, "\u95e8\u53e3": 196060, "\u8564": 5384, "\u2581Zoom": 85, "\u2581Asy": 16, "\u4e28": 63138, "\u2581Tanzania": 3, "\u2581Ass": 32, "\u95e8\u6237\u7f51\u7ad9": 73643, "\u2581Asp": 104, "Sunday": 3830, "\u2581Asu": 2, "\u2581Ask": 95, "\u2581Asi": 31, "\u2581Ash": 169, "\u2581Toilet": 7, "(2003)": 13655, "ntific": 146, "\u65f6\u5c1a": 753360, "laan": 249, "\u6c38\u5229": 7187, "laah": 4, "coagul": 231, "laaf": 10, "\u2581Opis": 3, "laad": 23, "][": 33865, "tysta": 4, "laat": 75, "\u599e": 57895, "\u5371\u5bb3": 275159, "]}": 438, "\u2581MXN": 5, "IENT": 385, "]{": 187, "ups": 1732, "datter": 3, "\u2581rekon": 2, "\u2581Neutral": 17, "\u60b8": 41907, "szint": 2, "IEND": 1439, "IENE": 57, "aarid": 6, "cademia": 546, "solo": 8281, "ANTES": 84, "heks": 11, "shunos": 1, "indul": 170, "silicone": 143, "sold": 690, "attention": 1450, "Manual": 1065, "uus": 116, "uur": 127, "\u538b\u529b": 896867, "estrem": 27, "uun": 96, "heke": 160, "uud": 193, "solt": 102, "solu": 1028, "\u2581Esse": 21, "ankam": 21, "]=": 107, "uzun": 155, "asunto": 3, "];": 6420, "]:": 33265, "viles": 37, "operar": 5, "\u25812015)": 2, "],": 39069, "].": 85205, "])": 5023, "](": 17351, "]+": 1920, "]*": 935, "krep": 12, "\u2581dialog": 6, "partage": 24, ".543": 343, "ozir": 20, "vardi": 26, "Union": 5851, "\u2581soft": 48, "\u2581Eliz": 6, "\u8c26": 200798, "skrev": 16, "bistan": 6, "\u2581Nera": 4,
[...]
